// AUTO-GENERATED by 3_convert_to_arduino_final.py
// Smart Hurley TinyML Model
// Classes : idle, swing, impact, fake_hit
// Features: 31
// Size    : 5.86 KB

#ifndef HURLEY_MODEL_H
#define HURLEY_MODEL_H

#include <stdint.h>

const unsigned int  hurley_model_len  = 6000;
const unsigned char hurley_model_data[] = {
  0x1c, 0x00, 0x00, 0x00, 0x54, 0x46, 0x4c, 0x33, 0x14, 0x00, 0x20, 0x00,
  0x1c, 0x00, 0x18, 0x00, 0x14, 0x00, 0x10, 0x00, 0x0c, 0x00, 0x00, 0x00,
  0x08, 0x00, 0x04, 0x00, 0x14, 0x00, 0x00, 0x00, 0x1c, 0x00, 0x00, 0x00,
  0x8c, 0x00, 0x00, 0x00, 0xe4, 0x00, 0x00, 0x00, 0x04, 0x09, 0x00, 0x00,
  0x14, 0x09, 0x00, 0x00, 0xd4, 0x16, 0x00, 0x00, 0x03, 0x00, 0x00, 0x00,
  0x01, 0x00, 0x00, 0x00, 0x04, 0x00, 0x00, 0x00, 0xa6, 0xf6, 0xff, 0xff,
  0x0c, 0x00, 0x00, 0x00, 0x1c, 0x00, 0x00, 0x00, 0x3c, 0x00, 0x00, 0x00,
  0x0f, 0x00, 0x00, 0x00, 0x73, 0x65, 0x72, 0x76, 0x69, 0x6e, 0x67, 0x5f,
  0x64, 0x65, 0x66, 0x61, 0x75, 0x6c, 0x74, 0x00, 0x01, 0x00, 0x00, 0x00,
  0x04, 0x00, 0x00, 0x00, 0x90, 0xff, 0xff, 0xff, 0x0c, 0x00, 0x00, 0x00,
  0x04, 0x00, 0x00, 0x00, 0x08, 0x00, 0x00, 0x00, 0x6f, 0x75, 0x74, 0x70,
  0x75, 0x74, 0x5f, 0x30, 0x00, 0x00, 0x00, 0x00, 0x01, 0x00, 0x00, 0x00,
  0x04, 0x00, 0x00, 0x00, 0xb2, 0xf6, 0xff, 0xff, 0x04, 0x00, 0x00, 0x00,
  0x0c, 0x00, 0x00, 0x00, 0x6b, 0x65, 0x72, 0x61, 0x73, 0x5f, 0x74, 0x65,
  0x6e, 0x73, 0x6f, 0x72, 0x00, 0x00, 0x00, 0x00, 0x02, 0x00, 0x00, 0x00,
  0x34, 0x00, 0x00, 0x00, 0x04, 0x00, 0x00, 0x00, 0xdc, 0xff, 0xff, 0xff,
  0x0f, 0x00, 0x00, 0x00, 0x04, 0x00, 0x00, 0x00, 0x13, 0x00, 0x00, 0x00,
  0x43, 0x4f, 0x4e, 0x56, 0x45, 0x52, 0x53, 0x49, 0x4f, 0x4e, 0x5f, 0x4d,
  0x45, 0x54, 0x41, 0x44, 0x41, 0x54, 0x41, 0x00, 0x08, 0x00, 0x0c, 0x00,
  0x08, 0x00, 0x04, 0x00, 0x08, 0x00, 0x00, 0x00, 0x0e, 0x00, 0x00, 0x00,
  0x04, 0x00, 0x00, 0x00, 0x13, 0x00, 0x00, 0x00, 0x6d, 0x69, 0x6e, 0x5f,
  0x72, 0x75, 0x6e, 0x74, 0x69, 0x6d, 0x65, 0x5f, 0x76, 0x65, 0x72, 0x73,
  0x69, 0x6f, 0x6e, 0x00, 0x10, 0x00, 0x00, 0x00, 0x1c, 0x08, 0x00, 0x00,
  0x14, 0x08, 0x00, 0x00, 0xf4, 0x07, 0x00, 0x00, 0xa4, 0x07, 0x00, 0x00,
  0x54, 0x07, 0x00, 0x00, 0x44, 0x05, 0x00, 0x00, 0xb4, 0x04, 0x00, 0x00,
  0xc4, 0x00, 0x00, 0x00, 0xbc, 0x00, 0x00, 0x00, 0xb4, 0x00, 0x00, 0x00,
  0xac, 0x00, 0x00, 0x00, 0xa4, 0x00, 0x00, 0x00, 0x9c, 0x00, 0x00, 0x00,
  0x94, 0x00, 0x00, 0x00, 0x74, 0x00, 0x00, 0x00, 0x04, 0x00, 0x00, 0x00,
  0x6e, 0xf7, 0xff, 0xff, 0x04, 0x00, 0x00, 0x00, 0x60, 0x00, 0x00, 0x00,
  0x0c, 0x00, 0x00, 0x00, 0x08, 0x00, 0x0e, 0x00, 0x08, 0x00, 0x04, 0x00,
  0x08, 0x00, 0x00, 0x00, 0x10, 0x00, 0x00, 0x00, 0x28, 0x00, 0x00, 0x00,
  0x00, 0x00, 0x06, 0x00, 0x08, 0x00, 0x04, 0x00, 0x06, 0x00, 0x00, 0x00,
  0x04, 0x00, 0x00, 0x00, 0x01, 0x00, 0x00, 0x00, 0xeb, 0x03, 0x00, 0x00,
  0x0c, 0x00, 0x18, 0x00, 0x14, 0x00, 0x10, 0x00, 0x0c, 0x00, 0x04, 0x00,
  0x0c, 0x00, 0x00, 0x00, 0xe2, 0xa6, 0x12, 0x98, 0x81, 0x67, 0x73, 0xd1,
  0x02, 0x00, 0x00, 0x00, 0x02, 0x00, 0x00, 0x00, 0x04, 0x00, 0x00, 0x00,
  0x06, 0x00, 0x00, 0x00, 0x32, 0x2e, 0x32, 0x31, 0x2e, 0x30, 0x00, 0x00,
  0xda, 0xf7, 0xff, 0xff, 0x04, 0x00, 0x00, 0x00, 0x10, 0x00, 0x00, 0x00,
  0x31, 0x2e, 0x31, 0x34, 0x2e, 0x30, 0x00, 0x00, 0x00, 0x00, 0x00, 0x00,
  0x00, 0x00, 0x00, 0x00, 0x08, 0xeb, 0xff, 0xff, 0x0c, 0xeb, 0xff, 0xff,
  0x10, 0xeb, 0xff, 0xff, 0x14, 0xeb, 0xff, 0xff, 0x18, 0xeb, 0xff, 0xff,
  0x1c, 0xeb, 0xff, 0xff, 0x0e, 0xf8, 0xff, 0xff, 0x04, 0x00, 0x00, 0x00,
  0xe0, 0x03, 0x00, 0x00, 0x69, 0x0d, 0x14, 0x04, 0x29, 0x06, 0xde, 0xf1,
  0x24, 0xdc, 0x6d, 0x31, 0x27, 0xf6, 0x05, 0xe0, 0xf2, 0x30, 0xf6, 0x3b,
  0x42, 0x30, 0xfe, 0xfd, 0xfa, 0x08, 0x81, 0x02, 0xf6, 0xf5, 0xef, 0x4d,
  0x14, 0x0a, 0x10, 0x3a, 0x07, 0xed, 0xfa, 0x12, 0x08, 0x7f, 0x17, 0x5b,
  0x00, 0x12, 0x04, 0xd1, 0x04, 0xd8, 0x0e, 0x09, 0x18, 0x02, 0xfb, 0xfc,
  0x00, 0x00, 0xf6, 0xf5, 0xff, 0xf7, 0x3a, 0xfa, 0xfd, 0x00, 0x2f, 0xd8,
  0xfb, 0xfe, 0x19, 0xe2, 0x7f, 0x21, 0x17, 0xe2, 0xfa, 0x1b, 0x2f, 0xeb,
  0x1e, 0x29, 0xbf, 0xfc, 0xf9, 0xfe, 0x0a, 0xff, 0xf9, 0x01, 0xfb, 0x02,
  0xf3, 0xec, 0xfa, 0x1a, 0xf8, 0xf2, 0xcd, 0xc5, 0xef, 0x01, 0xca, 0xfb,
  0x17, 0x06, 0xf7, 0x03, 0x08, 0xfe, 0xf4, 0xfb, 0x53, 0x09, 0x4c, 0x29,
  0x04, 0xfb, 0xef, 0x81, 0x04, 0x18, 0xd2, 0x28, 0x15, 0x3a, 0x06, 0x0c,
  0x16, 0x22, 0x1a, 0xed, 0x09, 0x49, 0x25, 0x81, 0xfc, 0x16, 0xe3, 0xc2,
  0xc4, 0xc1, 0x90, 0xe4, 0xf5, 0xdb, 0xec, 0xed, 0x13, 0x6b, 0xd8, 0xfb,
  0xe3, 0x24, 0x01, 0xb9, 0xe5, 0xf5, 0xfa, 0xc5, 0xe2, 0xeb, 0x0f, 0xff,
  0xe2, 0x9c, 0x13, 0x1d, 0x04, 0x15, 0x12, 0xf7, 0x1d, 0x04, 0xee, 0xfa,
  0x3f, 0x26, 0x06, 0xf6, 0xea, 0x81, 0x02, 0x28, 0xfa, 0x30, 0xe2, 0xe9,
  0x1f, 0x0e, 0xfc, 0x76, 0xf3, 0xb1, 0x06, 0x6f, 0x5d, 0x81, 0xf6, 0x3b,
  0xa2, 0x01, 0xd9, 0xa6, 0x82, 0x21, 0xec, 0xb1, 0xff, 0xef, 0x29, 0x6b,
  0x24, 0x0a, 0xdb, 0xef, 0x06, 0x01, 0x0b, 0x10, 0x13, 0x0b, 0xe1, 0xe0,
  0x19, 0x0c, 0xce, 0x03, 0x15, 0xfa, 0x25, 0x00, 0xfd, 0x04, 0xfc, 0xe6,
  0xed, 0xff, 0xed, 0x2c, 0xe9, 0x02, 0xf3, 0x24, 0x24, 0x2a, 0x56, 0x7f,
  0xbf, 0xea, 0x06, 0xcc, 0xd7, 0x0e, 0xeb, 0xed, 0xf5, 0xf2, 0x81, 0x27,
  0xe3, 0xf0, 0x4b, 0xc1, 0xd2, 0xfa, 0xfe, 0x1a, 0xee, 0xee, 0x20, 0x05,
  0xc5, 0x04, 0xfb, 0xf7, 0x2f, 0xcc, 0xfc, 0x26, 0x03, 0x1a, 0xfe, 0x22,
  0x21, 0x08, 0xfa, 0x0a, 0x00, 0x76, 0x42, 0xf8, 0xfa, 0x01, 0x13, 0xff,
  0xcc, 0xf4, 0x4c, 0xf8, 0x12, 0x08, 0xed, 0xe5, 0x0f, 0x81, 0x09, 0xfc,
  0xeb, 0xf5, 0x81, 0xde, 0xb1, 0xf6, 0xbc, 0x2f, 0x2a, 0x16, 0xdc, 0x22,
  0xb4, 0xd3, 0xf7, 0xa2, 0xff, 0x58, 0x02, 0xc5, 0xf5, 0xaf, 0xd9, 0xbf,
  0x41, 0x00, 0x06, 0xd4, 0x09, 0xfb, 0x39, 0x06, 0x47, 0x2d, 0xd0, 0xfe,
  0x03, 0xed, 0x6b, 0x24, 0x03, 0x00, 0x66, 0x7f, 0xfe, 0x0a, 0xeb, 0xf6,
  0xfc, 0xfa, 0xdd, 0xdf, 0x08, 0xfd, 0x13, 0x12, 0xf8, 0xf0, 0x1c, 0x3b,
  0xe8, 0x0b, 0xf5, 0xf0, 0x30, 0x11, 0x0e, 0x04, 0x27, 0xd4, 0x7f, 0xbe,
  0x00, 0x0c, 0x5b, 0xc2, 0x17, 0x0d, 0xee, 0x1a, 0xb0, 0xfd, 0xf8, 0x22,
  0xe2, 0xfa, 0xd6, 0x02, 0x21, 0x0e, 0x14, 0x0e, 0xd2, 0x1a, 0x06, 0xc0,
  0xc3, 0xe2, 0xe2, 0xc0, 0xf7, 0xe0, 0x4c, 0x14, 0xd3, 0x81, 0x08, 0xee,
  0xdd, 0x31, 0x4c, 0xc4, 0xee, 0xe6, 0x24, 0xe9, 0x18, 0x69, 0x1b, 0x4b,
  0xd5, 0xf8, 0xce, 0x58, 0x21, 0x46, 0x33, 0xd6, 0xf8, 0xf0, 0xfa, 0x86,
  0xeb, 0xe6, 0x0c, 0xa4, 0xcd, 0x7f, 0x64, 0x28, 0xe8, 0xc1, 0xb3, 0x50,
  0x2d, 0x55, 0x01, 0xfa, 0xbe, 0x09, 0xf3, 0x4e, 0xff, 0x02, 0xcc, 0x40,
  0xc4, 0x9e, 0xc7, 0xe7, 0x0a, 0xbb, 0x22, 0x30, 0x39, 0xf4, 0x2c, 0x81,
  0xbc, 0xfe, 0xf7, 0xf0, 0x00, 0xfc, 0x2c, 0x08, 0x1f, 0x05, 0xb8, 0x26,
  0xff, 0x0d, 0xec, 0xfc, 0xff, 0x36, 0xed, 0x20, 0x38, 0xde, 0x0c, 0xea,
  0xfc, 0xf2, 0x0e, 0xfa, 0x02, 0x0f, 0x81, 0x2b, 0x6e, 0x0e, 0x19, 0x20,
  0xd6, 0xe9, 0xe5, 0x28, 0x22, 0x04, 0xe0, 0x0f, 0xee, 0x1d, 0xf1, 0xf8,
  0xea, 0xf6, 0xea, 0x08, 0xeb, 0x10, 0xea, 0xf4, 0xeb, 0xd3, 0xe5, 0x27,
  0xe8, 0xf1, 0x2d, 0x00, 0x19, 0x04, 0x01, 0xf4, 0xbb, 0x12, 0x48, 0xf4,
  0x6f, 0xf7, 0x12, 0xfe, 0x0b, 0x81, 0x0a, 0xdd, 0xe0, 0xdd, 0x1a, 0x17,
  0xf2, 0x02, 0x2e, 0xb9, 0x43, 0x81, 0xe7, 0xfb, 0xfc, 0xbc, 0xe0, 0xfc,
  0xff, 0x62, 0x0e, 0xf8, 0x11, 0xfc, 0xdc, 0xc4, 0x0f, 0xf3, 0x07, 0xef,
  0xd3, 0x0b, 0x05, 0x01, 0x05, 0xf9, 0x0b, 0xfc, 0xf8, 0x09, 0x0d, 0x1a,
  0xed, 0x06, 0x25, 0x31, 0x22, 0xa5, 0x30, 0xf4, 0x9e, 0x7f, 0xd9, 0xec,
  0xdd, 0x05, 0xca, 0xe3, 0x0b, 0xdf, 0x1b, 0x0c, 0x03, 0xea, 0xe6, 0xe5,
  0x2a, 0x18, 0x26, 0x05, 0x2c, 0xf9, 0xff, 0xf9, 0x14, 0xf0, 0x34, 0x11,
  0xea, 0x0c, 0x08, 0x01, 0x16, 0x81, 0xe7, 0xf1, 0x13, 0xd8, 0xec, 0x02,
  0xf7, 0x0b, 0xfa, 0x05, 0xf6, 0xee, 0xf6, 0xf1, 0xe4, 0xdd, 0xfe, 0xfb,
  0xe2, 0x42, 0xc5, 0xe3, 0xf5, 0x11, 0x01, 0x00, 0xfd, 0x12, 0x5d, 0xf1,
  0x81, 0xfe, 0x46, 0x1e, 0xed, 0x0a, 0x00, 0x00, 0xd7, 0xfb, 0x06, 0xfa,
  0xdd, 0x14, 0x0a, 0x00, 0xf2, 0xfe, 0x04, 0xe1, 0x2d, 0xe0, 0xe2, 0xf3,
  0xe5, 0xf2, 0xcf, 0xea, 0xf6, 0x03, 0x29, 0x12, 0x21, 0x51, 0xf0, 0x04,
  0xea, 0x01, 0x05, 0x08, 0x1a, 0xfb, 0xd9, 0x81, 0xd9, 0x5a, 0x04, 0xfe,
  0xfc, 0x35, 0xb7, 0xf3, 0xeb, 0xff, 0xc9, 0x14, 0x1a, 0x1c, 0x15, 0xfd,
  0x41, 0x30, 0x81, 0xf4, 0xff, 0x28, 0xf2, 0xff, 0xfd, 0xf8, 0xea, 0x03,
  0xfc, 0xf7, 0xee, 0xfa, 0x33, 0xf0, 0xeb, 0x05, 0x01, 0x7f, 0xcc, 0x15,
  0xfb, 0x5c, 0x7f, 0x2e, 0xf6, 0x06, 0xe4, 0xe3, 0xef, 0xd4, 0xf8, 0xfe,
  0xff, 0xef, 0xfc, 0xfa, 0x09, 0x03, 0xff, 0x03, 0xe0, 0xf7, 0xdf, 0xc4,
  0xd6, 0xbd, 0x18, 0xb0, 0x3f, 0x53, 0x07, 0xf2, 0x54, 0x81, 0xe5, 0x14,
  0xde, 0x0c, 0xee, 0xd6, 0x2f, 0x4e, 0x69, 0xf0, 0xf4, 0xe9, 0x04, 0x02,
  0xf4, 0xf5, 0xec, 0x08, 0xa7, 0xeb, 0x12, 0xec, 0xeb, 0xf8, 0xe1, 0xbe,
  0xbe, 0x49, 0x0a, 0xc6, 0xe9, 0x0c, 0x32, 0xf1, 0xd2, 0x1c, 0x06, 0xf3,
  0xeb, 0x26, 0x07, 0x3d, 0x14, 0x34, 0xdc, 0x0d, 0x15, 0x08, 0x07, 0x7f,
  0x69, 0x6e, 0x0e, 0x0b, 0xef, 0x47, 0xc9, 0x01, 0xbc, 0xef, 0xd9, 0x05,
  0x1b, 0xfd, 0xfb, 0xfe, 0x81, 0x68, 0xe7, 0x11, 0x95, 0x09, 0x19, 0x09,
  0x06, 0xd0, 0x1f, 0x00, 0xff, 0x0b, 0x37, 0x07, 0xbd, 0xe5, 0xf1, 0x05,
  0xe6, 0xe7, 0xe1, 0x38, 0xfe, 0xd5, 0xa3, 0xf7, 0x28, 0xff, 0xfc, 0x47,
  0xf6, 0x06, 0xe1, 0x0d, 0x04, 0xf0, 0x40, 0xc3, 0x68, 0x32, 0x2d, 0x46,
  0x3b, 0x7f, 0x43, 0x16, 0x15, 0xff, 0xef, 0x1d, 0x81, 0xac, 0xdf, 0x00,
  0x8c, 0x9b, 0x4a, 0x33, 0xe9, 0x1c, 0xe1, 0x23, 0xe2, 0x3e, 0x0a, 0xcc,
  0xd7, 0x39, 0x0c, 0xea, 0x2b, 0xfc, 0x03, 0x25, 0x1c, 0x19, 0x46, 0xf3,
  0x08, 0x12, 0x14, 0x25, 0xff, 0xec, 0x03, 0x0b, 0x72, 0x4e, 0x2d, 0x22,
  0xf5, 0xe4, 0xff, 0x00, 0x1d, 0x35, 0x0a, 0x30, 0x07, 0xf9, 0xf5, 0x07,
  0x81, 0x07, 0xf8, 0xfd, 0xdd, 0xb2, 0x3e, 0x05, 0x09, 0xef, 0xfe, 0x1f,
  0x20, 0x02, 0x00, 0xf4, 0x51, 0x92, 0x06, 0xf0, 0xe0, 0x9f, 0xaf, 0x05,
  0xea, 0x30, 0x81, 0x20, 0xff, 0x0b, 0xce, 0x06, 0x04, 0x0e, 0xfb, 0x41,
  0xfa, 0xfb, 0xff, 0xff, 0x04, 0x00, 0x00, 0x00, 0x80, 0x00, 0x00, 0x00,
  0xc8, 0xff, 0xff, 0xff, 0x51, 0x01, 0x00, 0x00, 0x63, 0xf8, 0xff, 0xff,
  0xcf, 0xfc, 0xff, 0xff, 0x11, 0xf8, 0xff, 0xff, 0xef, 0xfc, 0xff, 0xff,
  0x07, 0xf5, 0xff, 0xff, 0x90, 0xfa, 0xff, 0xff, 0x76, 0xf3, 0xff, 0xff,
  0x14, 0x00, 0x00, 0x00, 0x96, 0xf5, 0xff, 0xff, 0xcf, 0xfc, 0xff, 0xff,
  0xfc, 0xf4, 0xff, 0xff, 0x5b, 0x02, 0x00, 0x00, 0xcd, 0xf7, 0xff, 0xff,
  0x2e, 0xfd, 0xff, 0xff, 0x49, 0xfe, 0xff, 0xff, 0xbf, 0xfe, 0xff, 0xff,
  0xdc, 0xf9, 0xff, 0xff, 0xce, 0xf2, 0xff, 0xff, 0xb1, 0xfa, 0xff, 0xff,
  0x43, 0xf6, 0xff, 0xff, 0xf7, 0xf8, 0xff, 0xff, 0xfd, 0xf8, 0xff, 0xff,
  0x7c, 0xf5, 0xff, 0xff, 0x49, 0xfa, 0xff, 0xff, 0xa6, 0xfb, 0xff, 0xff,
  0xf3, 0xf9, 0xff, 0xff, 0x50, 0x03, 0x00, 0x00, 0xe0, 0xf5, 0xff, 0xff,
  0x36, 0xfe, 0xff, 0xff, 0x95, 0xfa, 0xff, 0xff, 0x86, 0xfc, 0xff, 0xff,
  0x04, 0x00, 0x00, 0x00, 0x00, 0x02, 0x00, 0x00, 0x02, 0xff, 0x09, 0xf0,
  0x31, 0xf3, 0x1d, 0xc4, 0xb3, 0x01, 0x7d, 0x15, 0x7f, 0xf4, 0x02, 0xa3,
  0xfd, 0xfe, 0x77, 0xf5, 0xf1, 0x5e, 0x31, 0x2b, 0x04, 0x02, 0xcb, 0x29,
  0xf1, 0xce, 0xff, 0x57, 0x84, 0xff, 0x88, 0xfe, 0x0a, 0xfa, 0x19, 0x00,
  0x13, 0xe4, 0xfe, 0xeb, 0x24, 0x03, 0xfe, 0x02, 0xf7, 0xfb, 0x14, 0x03,
  0xec, 0x2e, 0x33, 0x11, 0xdf, 0x03, 0x03, 0x09, 0x03, 0x09, 0x81, 0x15,
  0x02, 0x00, 0x01, 0x09, 0x10, 0x11, 0x05, 0x00, 0x03, 0x15, 0x02, 0xfd,
  0x38, 0x0b, 0xf6, 0x01, 0x13, 0x1d, 0xff, 0xf7, 0xff, 0x04, 0x00, 0x02,
  0x7f, 0x31, 0x00, 0xeb, 0xfb, 0x00, 0x05, 0xff, 0x01, 0xfc, 0x01, 0x22,
  0x9d, 0x1e, 0xa8, 0x2e, 0xeb, 0x00, 0xff, 0xf9, 0x81, 0x17, 0xf6, 0x1f,
  0x02, 0x08, 0x04, 0xe8, 0xdd, 0xe2, 0x01, 0xed, 0xcd, 0x07, 0x22, 0xf1,
  0x08, 0xf6, 0x02, 0x00, 0x01, 0xf9, 0x0a, 0xd4, 0x21, 0xb4, 0x07, 0xae,
  0x0c, 0x03, 0x00, 0x05, 0x2e, 0xb3, 0x81, 0xbb, 0x05, 0x03, 0xf8, 0x01,
  0xf4, 0x13, 0x03, 0x4d, 0xfd, 0xff, 0xc2, 0x0e, 0xcf, 0x11, 0x03, 0x0c,
  0x44, 0xfb, 0x34, 0xff, 0xf7, 0xfd, 0xff, 0x81, 0x01, 0x00, 0xff, 0x0b,
  0xf7, 0xfc, 0x38, 0x04, 0xfe, 0x00, 0x01, 0x03, 0xff, 0xfb, 0xff, 0x04,
  0x50, 0x01, 0xcb, 0x03, 0x00, 0xfd, 0x44, 0x14, 0x86, 0x81, 0xd2, 0x14,
  0x1b, 0x0e, 0xfa, 0x03, 0xff, 0x15, 0x01, 0x81, 0x3c, 0x08, 0xc9, 0x0c,
  0xb3, 0x09, 0xfe, 0xeb, 0xff, 0x00, 0x00, 0xcf, 0x0d, 0x0f, 0x0a, 0xeb,
  0x04, 0xf2, 0xb1, 0xff, 0xfb, 0x01, 0x0a, 0x03, 0xef, 0xa7, 0x06, 0xd0,
  0x00, 0xfd, 0xfe, 0x03, 0x4b, 0xfe, 0xe8, 0x81, 0xcd, 0x01, 0xf7, 0xfe,
  0xfd, 0x07, 0xfb, 0x0a, 0x12, 0xc5, 0x01, 0x12, 0xf4, 0xf8, 0xfd, 0xef,
  0xe2, 0xff, 0x08, 0xaf, 0xc8, 0xbf, 0x07, 0xe9, 0x09, 0x81, 0x02, 0x0b,
  0x1b, 0xd5, 0x07, 0xcc, 0xe4, 0xb2, 0xfe, 0x0b, 0x05, 0xf7, 0x00, 0xfa,
  0xc0, 0xd1, 0x06, 0x05, 0xf2, 0x0c, 0xcc, 0x01, 0x04, 0x1f, 0x12, 0xf6,
  0x00, 0xf7, 0x05, 0xb2, 0x05, 0xfb, 0x00, 0x00, 0x2a, 0xf8, 0x06, 0xf5,
  0x00, 0x0d, 0x08, 0x0b, 0x04, 0xfe, 0x0e, 0x01, 0x36, 0xff, 0x81, 0xfd,
  0xff, 0x02, 0x06, 0x00, 0x00, 0x00, 0x00, 0x06, 0xdf, 0x02, 0xdf, 0x13,
  0x2f, 0xff, 0x02, 0xfc, 0xe8, 0x05, 0xff, 0x09, 0xff, 0x01, 0xdf, 0xf5,
  0xd4, 0xec, 0xd7, 0xfe, 0xec, 0xfe, 0x12, 0x81, 0x08, 0x25, 0xff, 0xda,
  0x1f, 0xfa, 0x43, 0xf8, 0xf0, 0x03, 0xfb, 0xfe, 0xef, 0x3c, 0xc1, 0x0c,
  0x15, 0xfb, 0x0d, 0x02, 0x4a, 0x0b, 0xef, 0x2b, 0xdb, 0xb0, 0xe3, 0xd7,
  0x67, 0x05, 0x02, 0x81, 0xf9, 0xf7, 0x31, 0x01, 0x00, 0x00, 0xf8, 0x26,
  0x22, 0xdd, 0x03, 0x08, 0xdd, 0xfe, 0x81, 0xf3, 0x38, 0xee, 0xec, 0xff,
  0xfc, 0xff, 0x0e, 0xfc, 0x00, 0x1d, 0xee, 0x05, 0x4c, 0xff, 0x02, 0xf4,
  0xf5, 0xb3, 0xfd, 0xf6, 0x00, 0x00, 0xfd, 0xf3, 0xe7, 0xfc, 0xef, 0x06,
  0x49, 0xfc, 0x6b, 0xca, 0xe4, 0x07, 0x02, 0x08, 0xfe, 0x03, 0xd5, 0xef,
  0xd9, 0xe5, 0xf1, 0xf8, 0xe1, 0x02, 0x05, 0xee, 0xf9, 0x7f, 0x00, 0xfc,
  0x03, 0x0b, 0x02, 0x3d, 0xd1, 0xfd, 0xb6, 0x07, 0x37, 0x05, 0xac, 0x06,
  0xdd, 0x0b, 0xff, 0xea, 0x01, 0x01, 0x87, 0xe2, 0xb4, 0xaa, 0xe0, 0x0e,
  0xd8, 0xe6, 0x15, 0xe6, 0x09, 0x03, 0x03, 0x81, 0xf4, 0x9f, 0xe7, 0xfc,
  0x31, 0x00, 0x08, 0x04, 0x32, 0xf8, 0x01, 0xc1, 0x76, 0x03, 0xc9, 0x04,
  0x9e, 0x04, 0x24, 0xf8, 0xf9, 0x43, 0x34, 0x81, 0xfd, 0x00, 0x08, 0x09,
  0x07, 0xef, 0xfa, 0x3e, 0x92, 0xfe, 0xff, 0xff, 0x04, 0x00, 0x00, 0x00,
  0x40, 0x00, 0x00, 0x00, 0x47, 0xff, 0xff, 0xff, 0x81, 0x00, 0x00, 0x00,
  0xbf, 0xff, 0xff, 0xff, 0x8d, 0x00, 0x00, 0x00, 0xed, 0xff, 0xff, 0xff,
  0x66, 0xfe, 0xff, 0xff, 0x58, 0x00, 0x00, 0x00, 0x37, 0x01, 0x00, 0x00,
  0x5d, 0x00, 0x00, 0x00, 0xe5, 0xfd, 0xff, 0xff, 0xed, 0x00, 0x00, 0x00,
  0x96, 0xff, 0xff, 0xff, 0xb7, 0xff, 0xff, 0xff, 0xbd, 0x01, 0x00, 0x00,
  0xcd, 0xfe, 0xff, 0xff, 0x24, 0x01, 0x00, 0x00, 0xde, 0xfe, 0xff, 0xff,
  0x04, 0x00, 0x00, 0x00, 0x40, 0x00, 0x00, 0x00, 0x0d, 0x03, 0x8a, 0xbc,
  0xff, 0xee, 0xae, 0x11, 0x10, 0x00, 0xfd, 0x81, 0xbd, 0x0a, 0xde, 0x09,
  0x1a, 0xb0, 0x2d, 0x1c, 0x0a, 0x20, 0x29, 0x3e, 0xa0, 0x10, 0x95, 0x1b,
  0x4f, 0x81, 0xe2, 0xe5, 0xee, 0xaf, 0x11, 0x17, 0xe8, 0x0b, 0x11, 0xfb,
  0x81, 0x02, 0x0b, 0x0a, 0xf4, 0x08, 0x07, 0xcb, 0x08, 0x03, 0x06, 0x0d,
  0xf2, 0x81, 0x12, 0xee, 0xf0, 0xad, 0x05, 0xcc, 0xfe, 0x07, 0xfd, 0x06,
  0x2a, 0xff, 0xff, 0xff, 0x04, 0x00, 0x00, 0x00, 0x10, 0x00, 0x00, 0x00,
  0x86, 0x00, 0x00, 0x00, 0xdd, 0xfe, 0xff, 0xff, 0x08, 0x00, 0x00, 0x00,
  0xf1, 0xff, 0xff, 0xff, 0x58, 0xf2, 0xff, 0xff, 0x5c, 0xf2, 0xff, 0xff,
  0x0f, 0x00, 0x00, 0x00, 0x4d, 0x4c, 0x49, 0x52, 0x20, 0x43, 0x6f, 0x6e,
  0x76, 0x65, 0x72, 0x74, 0x65, 0x64, 0x2e, 0x00, 0x01, 0x00, 0x00, 0x00,
  0x14, 0x00, 0x00, 0x00, 0x00, 0x00, 0x0e, 0x00, 0x18, 0x00, 0x14, 0x00,
  0x10, 0x00, 0x0c, 0x00, 0x08, 0x00, 0x04, 0x00, 0x0e, 0x00, 0x00, 0x00,
  0x14, 0x00, 0x00, 0x00, 0x1c, 0x00, 0x00, 0x00, 0x8c, 0x01, 0x00, 0x00,
  0x90, 0x01, 0x00, 0x00, 0x94, 0x01, 0x00, 0x00, 0x04, 0x00, 0x00, 0x00,
  0x6d, 0x61, 0x69, 0x6e, 0x00, 0x00, 0x00, 0x00, 0x06, 0x00, 0x00, 0x00,
  0x54, 0x01, 0x00, 0x00, 0x04, 0x01, 0x00, 0x00, 0xb8, 0x00, 0x00, 0x00,
  0x70, 0x00, 0x00, 0x00, 0x34, 0x00, 0x00, 0x00, 0x10, 0x00, 0x00, 0x00,
  0x00, 0x00, 0x0a, 0x00, 0x10, 0x00, 0x0c, 0x00, 0x08, 0x00, 0x04, 0x00,
  0x0a, 0x00, 0x00, 0x00, 0x0c, 0x00, 0x00, 0x00, 0x10, 0x00, 0x00, 0x00,
  0x03, 0x00, 0x00, 0x00, 0x01, 0x00, 0x00, 0x00, 0x0c, 0x00, 0x00, 0x00,
  0x01, 0x00, 0x00, 0x00, 0x0b, 0x00, 0x00, 0x00, 0x4a, 0xff, 0xff, 0xff,
  0x1c, 0x00, 0x00, 0x00, 0x00, 0x00, 0x00, 0x09, 0x1c, 0x00, 0x00, 0x00,
  0x20, 0x00, 0x00, 0x00, 0x02, 0x00, 0x00, 0x00, 0x00, 0x00, 0x06, 0x00,
  0x08, 0x00, 0x04, 0x00, 0x06, 0x00, 0x00, 0x00, 0x00, 0x00, 0x80, 0x3f,
  0x01, 0x00, 0x00, 0x00, 0x0b, 0x00, 0x00, 0x00, 0x01, 0x00, 0x00, 0x00,
  0x0a, 0x00, 0x00, 0x00, 0xca, 0xff, 0xff, 0xff, 0x14, 0x00, 0x00, 0x00,
  0x00, 0x00, 0x00, 0x08, 0x10, 0x00, 0x00, 0x00, 0x14, 0x00, 0x00, 0x00,
  0x01, 0x00, 0x00, 0x00, 0x48, 0xf3, 0xff, 0xff, 0x01, 0x00, 0x00, 0x00,
  0x0a, 0x00, 0x00, 0x00, 0x03, 0x00, 0x00, 0x00, 0x09, 0x00, 0x00, 0x00,
  0x02, 0x00, 0x00, 0x00, 0x01, 0x00, 0x00, 0x00, 0x00, 0x00, 0x0e, 0x00,
  0x18, 0x00, 0x14, 0x00, 0x10, 0x00, 0x0c, 0x00, 0x0b, 0x00, 0x04, 0x00,
  0x0e, 0x00, 0x00, 0x00, 0x14, 0x00, 0x00, 0x00, 0x00, 0x00, 0x00, 0x08,
  0x14, 0x00, 0x00, 0x00, 0x18, 0x00, 0x00, 0x00, 0x01, 0x00, 0x00, 0x00,
  0xb6, 0xff, 0xff, 0xff, 0x00, 0x00, 0x00, 0x01, 0x01, 0x00, 0x00, 0x00,
  0x09, 0x00, 0x00, 0x00, 0x03, 0x00, 0x00, 0x00, 0x08, 0x00, 0x00, 0x00,
  0x04, 0x00, 0x00, 0x00, 0x03, 0x00, 0x00, 0x00, 0x00, 0x00, 0x0e, 0x00,
  0x1a, 0x00, 0x14, 0x00, 0x10, 0x00, 0x0c, 0x00, 0x0b, 0x00, 0x04, 0x00,
  0x0e, 0x00, 0x00, 0x00, 0x1c, 0x00, 0x00, 0x00, 0x00, 0x00, 0x00, 0x08,
  0x1c, 0x00, 0x00, 0x00, 0x20, 0x00, 0x00, 0x00, 0x01, 0x00, 0x00, 0x00,
  0x00, 0x00, 0x06, 0x00, 0x08, 0x00, 0x07, 0x00, 0x06, 0x00, 0x00, 0x00,
  0x00, 0x00, 0x00, 0x01, 0x01, 0x00, 0x00, 0x00, 0x08, 0x00, 0x00, 0x00,
  0x03, 0x00, 0x00, 0x00, 0x07, 0x00, 0x00, 0x00, 0x06, 0x00, 0x00, 0x00,
  0x05, 0x00, 0x00, 0x00, 0x00, 0x00, 0x0a, 0x00, 0x0c, 0x00, 0x00, 0x00,
  0x08, 0x00, 0x04, 0x00, 0x0a, 0x00, 0x00, 0x00, 0x08, 0x00, 0x00, 0x00,
  0x0c, 0x00, 0x00, 0x00, 0x01, 0x00, 0x00, 0x00, 0x07, 0x00, 0x00, 0x00,
  0x01, 0x00, 0x00, 0x00, 0x00, 0x00, 0x00, 0x00, 0x01, 0x00, 0x00, 0x00,
  0x0c, 0x00, 0x00, 0x00, 0x01, 0x00, 0x00, 0x00, 0x00, 0x00, 0x00, 0x00,
  0x0d, 0x00, 0x00, 0x00, 0xa0, 0x0b, 0x00, 0x00, 0xe4, 0x0a, 0x00, 0x00,
  0x2c, 0x0a, 0x00, 0x00, 0xe0, 0x08, 0x00, 0x00, 0xb4, 0x07, 0x00, 0x00,
  0xa8, 0x05, 0x00, 0x00, 0xbc, 0x03, 0x00, 0x00, 0x48, 0x03, 0x00, 0x00,
  0x64, 0x02, 0x00, 0x00, 0x90, 0x01, 0x00, 0x00, 0xe4, 0x00, 0x00, 0x00,
  0x60, 0x00, 0x00, 0x00, 0x04, 0x00, 0x00, 0x00, 0xaa, 0xf4, 0xff, 0xff,
  0x00, 0x00, 0x00, 0x01, 0x14, 0x00, 0x00, 0x00, 0x1c, 0x00, 0x00, 0x00,
  0x1c, 0x00, 0x00, 0x00, 0x0d, 0x00, 0x00, 0x00, 0x34, 0x00, 0x00, 0x00,
  0x02, 0x00, 0x00, 0x00, 0xff, 0xff, 0xff, 0xff, 0x04, 0x00, 0x00, 0x00,
  0x94, 0xf4, 0xff, 0xff, 0x1b, 0x00, 0x00, 0x00, 0x53, 0x74, 0x61, 0x74,
  0x65, 0x66, 0x75, 0x6c, 0x50, 0x61, 0x72, 0x74, 0x69, 0x74, 0x69, 0x6f,
  0x6e, 0x65, 0x64, 0x43, 0x61, 0x6c, 0x6c, 0x5f, 0x31, 0x3a, 0x30, 0x00,
  0x02, 0x00, 0x00, 0x00, 0x01, 0x00, 0x00, 0x00, 0x04, 0x00, 0x00, 0x00,
  0x3e, 0xfd, 0xff, 0xff, 0x00, 0x00, 0x00, 0x01, 0x18, 0x00, 0x00, 0x00,
  0x20, 0x00, 0x00, 0x00, 0x40, 0x00, 0x00, 0x00, 0x0c, 0x00, 0x00, 0x00,
  0x00, 0x00, 0x00, 0x09, 0x58, 0x00, 0x00, 0x00, 0x02, 0x00, 0x00, 0x00,
  0xff, 0xff, 0xff, 0xff, 0x04, 0x00, 0x00, 0x00, 0xb4, 0xf5, 0xff, 0xff,
  0x08, 0x00, 0x00, 0x00, 0x14, 0x00, 0x00, 0x00, 0x01, 0x00, 0x00, 0x00,
  0x80, 0xff, 0xff, 0xff, 0xff, 0xff, 0xff, 0xff, 0x00, 0x00, 0x00, 0x00,
  0x01, 0x00, 0x00, 0x00, 0x00, 0x00, 0x80, 0x3b, 0x1c, 0x00, 0x00, 0x00,
  0x53, 0x74, 0x61, 0x74, 0x65, 0x66, 0x75, 0x6c, 0x50, 0x61, 0x72, 0x74,
  0x69, 0x74, 0x69, 0x6f, 0x6e, 0x65, 0x64, 0x43, 0x61, 0x6c, 0x6c, 0x5f,
  0x31, 0x3a, 0x30, 0x31, 0x00, 0x00, 0x00, 0x00, 0x02, 0x00, 0x00, 0x00,
  0x01, 0x00, 0x00, 0x00, 0x04, 0x00, 0x00, 0x00, 0xbe, 0xfd, 0xff, 0xff,
  0x00, 0x00, 0x00, 0x01, 0x18, 0x00, 0x00, 0x00, 0x20, 0x00, 0x00, 0x00,
  0x3c, 0x00, 0x00, 0x00, 0x0b, 0x00, 0x00, 0x00, 0x00, 0x00, 0x00, 0x09,
  0x80, 0x00, 0x00, 0x00, 0x02, 0x00, 0x00, 0x00, 0xff, 0xff, 0xff, 0xff,
  0x04, 0x00, 0x00, 0x00, 0x34, 0xf6, 0xff, 0xff, 0x08, 0x00, 0x00, 0x00,
  0x10, 0x00, 0x00, 0x00, 0x01, 0x00, 0x00, 0x00, 0x5f, 0x00, 0x00, 0x00,
  0x00, 0x00, 0x00, 0x00, 0x01, 0x00, 0x00, 0x00, 0xb5, 0x7e, 0x3a, 0x40,
  0x4a, 0x00, 0x00, 0x00, 0x68, 0x75, 0x72, 0x6c, 0x65, 0x79, 0x5f, 0x63,
  0x6c, 0x61, 0x73, 0x73, 0x69, 0x66, 0x69, 0x65, 0x72, 0x5f, 0x31, 0x2f,
  0x64, 0x65, 0x6e, 0x73, 0x65, 0x5f, 0x32, 0x5f, 0x31, 0x2f, 0x4d, 0x61,
  0x74, 0x4d, 0x75, 0x6c, 0x3b, 0x68, 0x75, 0x72, 0x6c, 0x65, 0x79, 0x5f,
  0x63, 0x6c, 0x61, 0x73, 0x73, 0x69, 0x66, 0x69, 0x65, 0x72, 0x5f, 0x31,
  0x2f, 0x64, 0x65, 0x6e, 0x73, 0x65, 0x5f, 0x32, 0x5f, 0x31, 0x2f, 0x42,
  0x69, 0x61, 0x73, 0x41, 0x64, 0x64, 0x00, 0x00, 0x02, 0x00, 0x00, 0x00,
  0x01, 0x00, 0x00, 0x00, 0x04, 0x00, 0x00, 0x00, 0x66, 0xfe, 0xff, 0xff,
  0x00, 0x00, 0x00, 0x01, 0x18, 0x00, 0x00, 0x00, 0x20, 0x00, 0x00, 0x00,
  0x40, 0x00, 0x00, 0x00, 0x0a, 0x00, 0x00, 0x00, 0x00, 0x00, 0x00, 0x09,
  0xa8, 0x00, 0x00, 0x00, 0x02, 0x00, 0x00, 0x00, 0xff, 0xff, 0xff, 0xff,
  0x10, 0x00, 0x00, 0x00, 0xdc, 0xf6, 0xff, 0xff, 0x08, 0x00, 0x00, 0x00,
  0x14, 0x00, 0x00, 0x00, 0x01, 0x00, 0x00, 0x00, 0x80, 0xff, 0xff, 0xff,
  0xff, 0xff, 0xff, 0xff, 0x00, 0x00, 0x00, 0x00, 0x01, 0x00, 0x00, 0x00,
  0xb9, 0x4d, 0xa9, 0x3e, 0x6d, 0x00, 0x00, 0x00, 0x68, 0x75, 0x72, 0x6c,
  0x65, 0x79, 0x5f, 0x63, 0x6c, 0x61, 0x73, 0x73, 0x69, 0x66, 0x69, 0x65,
  0x72, 0x5f, 0x31, 0x2f, 0x64, 0x65, 0x6e, 0x73, 0x65, 0x5f, 0x31, 0x5f,
  0x32, 0x2f, 0x4d, 0x61, 0x74, 0x4d, 0x75, 0x6c, 0x3b, 0x68, 0x75, 0x72,
  0x6c, 0x65, 0x79, 0x5f, 0x63, 0x6c, 0x61, 0x73, 0x73, 0x69, 0x66, 0x69,
  0x65, 0x72, 0x5f, 0x31, 0x2f, 0x64, 0x65, 0x6e, 0x73, 0x65, 0x5f, 0x31,
  0x5f, 0x32, 0x2f, 0x52, 0x65, 0x6c, 0x75, 0x3b, 0x68, 0x75, 0x72, 0x6c,
  0x65, 0x79, 0x5f, 0x63, 0x6c, 0x61, 0x73, 0x73, 0x69, 0x66, 0x69, 0x65,
  0x72, 0x5f, 0x31, 0x2f, 0x64, 0x65, 0x6e, 0x73, 0x65, 0x5f, 0x31, 0x5f,
  0x32, 0x2f, 0x42, 0x69, 0x61, 0x73, 0x41, 0x64, 0x64, 0x00, 0x00, 0x00,
  0x02, 0x00, 0x00, 0x00, 0x01, 0x00, 0x00, 0x00, 0x10, 0x00, 0x00, 0x00,
  0x36, 0xff, 0xff, 0xff, 0x00, 0x00, 0x00, 0x01, 0x18, 0x00, 0x00, 0x00,
  0x20, 0x00, 0x00, 0x00, 0x40, 0x00, 0x00, 0x00, 0x09, 0x00, 0x00, 0x00,
  0x00, 0x00, 0x00, 0x09, 0xa0, 0x00, 0x00, 0x00, 0x02, 0x00, 0x00, 0x00,
  0xff, 0xff, 0xff, 0xff, 0x20, 0x00, 0x00, 0x00, 0xac, 0xf7, 0xff, 0xff,
  0x08, 0x00, 0x00, 0x00, 0x14, 0x00, 0x00, 0x00, 0x01, 0x00, 0x00, 0x00,
  0x80, 0xff, 0xff, 0xff, 0xff, 0xff, 0xff, 0xff, 0x00, 0x00, 0x00, 0x00,
  0x01, 0x00, 0x00, 0x00, 0x4c, 0x1f, 0xa3, 0x3d, 0x67, 0x00, 0x00, 0x00,
  0x68, 0x75, 0x72, 0x6c, 0x65, 0x79, 0x5f, 0x63, 0x6c, 0x61, 0x73, 0x73,
  0x69, 0x66, 0x69, 0x65, 0x72, 0x5f, 0x31, 0x2f, 0x64, 0x65, 0x6e, 0x73,
  0x65, 0x5f, 0x31, 0x2f, 0x4d, 0x61, 0x74, 0x4d, 0x75, 0x6c, 0x3b, 0x68,
  0x75, 0x72, 0x6c, 0x65, 0x79, 0x5f, 0x63, 0x6c, 0x61, 0x73, 0x73, 0x69,
  0x66, 0x69, 0x65, 0x72, 0x5f, 0x31, 0x2f, 0x64, 0x65, 0x6e, 0x73, 0x65,
  0x5f, 0x31, 0x2f, 0x52, 0x65, 0x6c, 0x75, 0x3b, 0x68, 0x75, 0x72, 0x6c,
  0x65, 0x79, 0x5f, 0x63, 0x6c, 0x61, 0x73, 0x73, 0x69, 0x66, 0x69, 0x65,
  0x72, 0x5f, 0x31, 0x2f, 0x64, 0x65, 0x6e, 0x73, 0x65, 0x5f, 0x31, 0x2f,
  0x42, 0x69, 0x61, 0x73, 0x41, 0x64, 0x64, 0x00, 0x02, 0x00, 0x00, 0x00,
  0x01, 0x00, 0x00, 0x00, 0x20, 0x00, 0x00, 0x00, 0x00, 0x00, 0x16, 0x00,
  0x20, 0x00, 0x1c, 0x00, 0x1b, 0x00, 0x14, 0x00, 0x10, 0x00, 0x0c, 0x00,
  0x00, 0x00, 0x00, 0x00, 0x08, 0x00, 0x07, 0x00, 0x16, 0x00, 0x00, 0x00,
  0x00, 0x00, 0x00, 0x01, 0x18, 0x00, 0x00, 0x00, 0x20, 0x00, 0x00, 0x00,
  0x40, 0x00, 0x00, 0x00, 0x08, 0x00, 0x00, 0x00, 0x00, 0x00, 0x00, 0x09,
  0x48, 0x00, 0x00, 0x00, 0x02, 0x00, 0x00, 0x00, 0xff, 0xff, 0xff, 0xff,
  0x1f, 0x00, 0x00, 0x00, 0x8c, 0xf8, 0xff, 0xff, 0x08, 0x00, 0x00, 0x00,
  0x14, 0x00, 0x00, 0x00, 0x01, 0x00, 0x00, 0x00, 0xec, 0xff, 0xff, 0xff,
  0xff, 0xff, 0xff, 0xff, 0x00, 0x00, 0x00, 0x00, 0x01, 0x00, 0x00, 0x00,
  0xad, 0xc8, 0x28, 0x3d, 0x0c, 0x00, 0x00, 0x00, 0x74, 0x66, 0x6c, 0x2e,
  0x71, 0x75, 0x61, 0x6e, 0x74, 0x69, 0x7a, 0x65, 0x00, 0x00, 0x00, 0x00,
  0x02, 0x00, 0x00, 0x00, 0x01, 0x00, 0x00, 0x00, 0x1f, 0x00, 0x00, 0x00,
  0x02, 0xf9, 0xff, 0xff, 0x00, 0x00, 0x00, 0x01, 0x14, 0x00, 0x00, 0x00,
  0xa8, 0x01, 0x00, 0x00, 0x07, 0x00, 0x00, 0x00, 0x00, 0x00, 0x00, 0x09,
  0xc4, 0x01, 0x00, 0x00, 0xec, 0xf8, 0xff, 0xff, 0x08, 0x00, 0x00, 0x00,
  0x0c, 0x01, 0x00, 0x00, 0x20, 0x00, 0x00, 0x00, 0x00, 0x00, 0x00, 0x00,
  0x00, 0x00, 0x00, 0x00, 0x00, 0x00, 0x00, 0x00, 0x00, 0x00, 0x00, 0x00,
  0x00, 0x00, 0x00, 0x00, 0x00, 0x00, 0x00, 0x00, 0x00, 0x00, 0x00, 0x00,
  0x00, 0x00, 0x00, 0x00, 0x00, 0x00, 0x00, 0x00, 0x00, 0x00, 0x00, 0x00,
  0x00, 0x00, 0x00, 0x00, 0x00, 0x00, 0x00, 0x00, 0x00, 0x00, 0x00, 0x00,
  0x00, 0x00, 0x00, 0x00, 0x00, 0x00, 0x00, 0x00, 0x00, 0x00, 0x00, 0x00,
  0x00, 0x00, 0x00, 0x00, 0x00, 0x00, 0x00, 0x00, 0x00, 0x00, 0x00, 0x00,
  0x00, 0x00, 0x00, 0x00, 0x00, 0x00, 0x00, 0x00, 0x00, 0x00, 0x00, 0x00,
  0x00, 0x00, 0x00, 0x00, 0x00, 0x00, 0x00, 0x00, 0x00, 0x00, 0x00, 0x00,
  0x00, 0x00, 0x00, 0x00, 0x00, 0x00, 0x00, 0x00, 0x00, 0x00, 0x00, 0x00,
  0x00, 0x00, 0x00, 0x00, 0x00, 0x00, 0x00, 0x00, 0x00, 0x00, 0x00, 0x00,
  0x00, 0x00, 0x00, 0x00, 0x00, 0x00, 0x00, 0x00, 0x00, 0x00, 0x00, 0x00,
  0x00, 0x00, 0x00, 0x00, 0x00, 0x00, 0x00, 0x00, 0x00, 0x00, 0x00, 0x00,
  0x00, 0x00, 0x00, 0x00, 0x00, 0x00, 0x00, 0x00, 0x00, 0x00, 0x00, 0x00,
  0x00, 0x00, 0x00, 0x00, 0x00, 0x00, 0x00, 0x00, 0x00, 0x00, 0x00, 0x00,
  0x00, 0x00, 0x00, 0x00, 0x00, 0x00, 0x00, 0x00, 0x00, 0x00, 0x00, 0x00,
  0x00, 0x00, 0x00, 0x00, 0x00, 0x00, 0x00, 0x00, 0x00, 0x00, 0x00, 0x00,
  0x00, 0x00, 0x00, 0x00, 0x00, 0x00, 0x00, 0x00, 0x00, 0x00, 0x00, 0x00,
  0x00, 0x00, 0x00, 0x00, 0x00, 0x00, 0x00, 0x00, 0x00, 0x00, 0x00, 0x00,
  0x00, 0x00, 0x00, 0x00, 0x00, 0x00, 0x00, 0x00, 0x00, 0x00, 0x00, 0x00,
  0x00, 0x00, 0x00, 0x00, 0x00, 0x00, 0x00, 0x00, 0x00, 0x00, 0x00, 0x00,
  0x00, 0x00, 0x00, 0x00, 0x00, 0x00, 0x00, 0x00, 0x00, 0x00, 0x00, 0x00,
  0x00, 0x00, 0x00, 0x00, 0x20, 0x00, 0x00, 0x00, 0x7c, 0x58, 0x8a, 0x3c,
  0xb4, 0x6d, 0xae, 0x3c, 0x57, 0x62, 0x97, 0x3c, 0x9d, 0x77, 0xb3, 0x3c,
  0x89, 0x40, 0x88, 0x3c, 0xa4, 0xd5, 0xac, 0x3c, 0xaa, 0x94, 0x3e, 0x3c,
  0xdf, 0xa0, 0xcb, 0x3c, 0x13, 0x3b, 0x8a, 0x3c, 0x10, 0x55, 0x90, 0x3c,
  0x34, 0xae, 0x51, 0x3c, 0xd7, 0xf9, 0xa4, 0x3c, 0xd4, 0x1d, 0xa6, 0x3c,
  0xd8, 0xfd, 0x5a, 0x3c, 0x2b, 0x20, 0x5a, 0x3c, 0xea, 0x3d, 0x97, 0x3c,
  0x56, 0xf2, 0x98, 0x3c, 0x43, 0xba, 0x8d, 0x3c, 0x7b, 0x02, 0x87, 0x3c,
  0x27, 0x10, 0x68, 0x3c, 0x3a, 0xb7, 0xb6, 0x3c, 0x0a, 0x31, 0x89, 0x3c,
  0xdb, 0x31, 0x91, 0x3c, 0xd6, 0x85, 0x91, 0x3c, 0x11, 0x1a, 0x94, 0x3c,
  0x51, 0xaf, 0x5b, 0x3c, 0x68, 0x15, 0x8a, 0x3c, 0x95, 0x8f, 0x74, 0x3c,
  0x3e, 0x55, 0x5f, 0x3c, 0x0a, 0x66, 0x85, 0x3c, 0x8a, 0x93, 0x91, 0x3c,
  0xb3, 0x52, 0x5f, 0x3c, 0x22, 0x00, 0x00, 0x00, 0x68, 0x75, 0x72, 0x6c,
  0x65, 0x79, 0x5f, 0x63, 0x6c, 0x61, 0x73, 0x73, 0x69, 0x66, 0x69, 0x65,
  0x72, 0x5f, 0x31, 0x2f, 0x64, 0x65, 0x6e, 0x73, 0x65, 0x5f, 0x31, 0x2f,
  0x4d, 0x61, 0x74, 0x4d, 0x75, 0x6c, 0x00, 0x00, 0x02, 0x00, 0x00, 0x00,
  0x20, 0x00, 0x00, 0x00, 0x1f, 0x00, 0x00, 0x00, 0xea, 0xfa, 0xff, 0xff,
  0x00, 0x00, 0x00, 0x01, 0x14, 0x00, 0x00, 0x00, 0xa8, 0x01, 0x00, 0x00,
  0x06, 0x00, 0x00, 0x00, 0x00, 0x00, 0x00, 0x02, 0xe8, 0x01, 0x00, 0x00,
  0xd4, 0xfa, 0xff, 0xff, 0x08, 0x00, 0x00, 0x00, 0x0c, 0x01, 0x00, 0x00,
  0x20, 0x00, 0x00, 0x00, 0x00, 0x00, 0x00, 0x00, 0x00, 0x00, 0x00, 0x00,
  0x00, 0x00, 0x00, 0x00, 0x00, 0x00, 0x00, 0x00, 0x00, 0x00, 0x00, 0x00,
  0x00, 0x00, 0x00, 0x00, 0x00, 0x00, 0x00, 0x00, 0x00, 0x00, 0x00, 0x00,
  0x00, 0x00, 0x00, 0x00, 0x00, 0x00, 0x00, 0x00, 0x00, 0x00, 0x00, 0x00,
  0x00, 0x00, 0x00, 0x00, 0x00, 0x00, 0x00, 0x00, 0x00, 0x00, 0x00, 0x00,
  0x00, 0x00, 0x00, 0x00, 0x00, 0x00, 0x00, 0x00, 0x00, 0x00, 0x00, 0x00,
  0x00, 0x00, 0x00, 0x00, 0x00, 0x00, 0x00, 0x00, 0x00, 0x00, 0x00, 0x00,
  0x00, 0x00, 0x00, 0x00, 0x00, 0x00, 0x00, 0x00, 0x00, 0x00, 0x00, 0x00,
  0x00, 0x00, 0x00, 0x00, 0x00, 0x00, 0x00, 0x00, 0x00, 0x00, 0x00, 0x00,
  0x00, 0x00, 0x00, 0x00, 0x00, 0x00, 0x00, 0x00, 0x00, 0x00, 0x00, 0x00,
  0x00, 0x00, 0x00, 0x00, 0x00, 0x00, 0x00, 0x00, 0x00, 0x00, 0x00, 0x00,
  0x00, 0x00, 0x00, 0x00, 0x00, 0x00, 0x00, 0x00, 0x00, 0x00, 0x00, 0x00,
  0x00, 0x00, 0x00, 0x00, 0x00, 0x00, 0x00, 0x00, 0x00, 0x00, 0x00, 0x00,
  0x00, 0x00, 0x00, 0x00, 0x00, 0x00, 0x00, 0x00, 0x00, 0x00, 0x00, 0x00,
  0x00, 0x00, 0x00, 0x00, 0x00, 0x00, 0x00, 0x00, 0x00, 0x00, 0x00, 0x00,
  0x00, 0x00, 0x00, 0x00, 0x00, 0x00, 0x00, 0x00, 0x00, 0x00, 0x00, 0x00,
  0x00, 0x00, 0x00, 0x00, 0x00, 0x00, 0x00, 0x00, 0x00, 0x00, 0x00, 0x00,
  0x00, 0x00, 0x00, 0x00, 0x00, 0x00, 0x00, 0x00, 0x00, 0x00, 0x00, 0x00,
  0x00, 0x00, 0x00, 0x00, 0x00, 0x00, 0x00, 0x00, 0x00, 0x00, 0x00, 0x00,
  0x00, 0x00, 0x00, 0x00, 0x00, 0x00, 0x00, 0x00, 0x00, 0x00, 0x00, 0x00,
  0x00, 0x00, 0x00, 0x00, 0x00, 0x00, 0x00, 0x00, 0x00, 0x00, 0x00, 0x00,
  0x00, 0x00, 0x00, 0x00, 0x00, 0x00, 0x00, 0x00, 0x00, 0x00, 0x00, 0x00,
  0x20, 0x00, 0x00, 0x00, 0x08, 0x6d, 0x36, 0x3a, 0x73, 0x01, 0x66, 0x3a,
  0x68, 0x9e, 0x47, 0x3a, 0x5c, 0xa6, 0x6c, 0x3a, 0x51, 0xaa, 0x33, 0x3a,
  0x5f, 0xe7, 0x63, 0x3a, 0xe9, 0x4d, 0xfb, 0x39, 0x32, 0x41, 0x86, 0x3a,
  0x40, 0x46, 0x36, 0x3a, 0xed, 0x51, 0x3e, 0x3a, 0xb0, 0x3e, 0x0a, 0x3a,
  0x90, 0x8a, 0x59, 0x3a, 0x95, 0x0b, 0x5b, 0x3a, 0x40, 0x62, 0x10, 0x3a,
  0x19, 0xd0, 0x0f, 0x3a, 0x60, 0x6e, 0x47, 0x3a, 0xda, 0xad, 0x49, 0x3a,
  0xab, 0xe2, 0x3a, 0x3a, 0xec, 0x06, 0x32, 0x3a, 0x83, 0x00, 0x19, 0x3a,
  0xf1, 0xee, 0x70, 0x3a, 0x73, 0xe7, 0x34, 0x3a, 0x12, 0x75, 0x3f, 0x3a,
  0xcf, 0xe3, 0x3f, 0x3a, 0x67, 0x4a, 0x43, 0x3a, 0x43, 0xd7, 0x10, 0x3a,
  0x95, 0x14, 0x36, 0x3a, 0xef, 0x3d, 0x21, 0x3a, 0x02, 0x3f, 0x13, 0x3a,
  0x11, 0xe7, 0x2f, 0x3a, 0xe0, 0xf5, 0x3f, 0x3a, 0x55, 0x3d, 0x13, 0x3a,
  0x44, 0x00, 0x00, 0x00, 0x68, 0x75, 0x72, 0x6c, 0x65, 0x79, 0x5f, 0x63,
  0x6c, 0x61, 0x73, 0x73, 0x69, 0x66, 0x69, 0x65, 0x72, 0x5f, 0x31, 0x2f,
  0x64, 0x65, 0x6e, 0x73, 0x65, 0x5f, 0x31, 0x2f, 0x52, 0x65, 0x6c, 0x75,
  0x3b, 0x68, 0x75, 0x72, 0x6c, 0x65, 0x79, 0x5f, 0x63, 0x6c, 0x61, 0x73,
  0x73, 0x69, 0x66, 0x69, 0x65, 0x72, 0x5f, 0x31, 0x2f, 0x64, 0x65, 0x6e,
  0x73, 0x65, 0x5f, 0x31, 0x2f, 0x42, 0x69, 0x61, 0x73, 0x41, 0x64, 0x64,
  0x00, 0x00, 0x00, 0x00, 0x01, 0x00, 0x00, 0x00, 0x20, 0x00, 0x00, 0x00,
  0xf2, 0xfc, 0xff, 0xff, 0x00, 0x00, 0x00, 0x01, 0x14, 0x00, 0x00, 0x00,
  0xe4, 0x00, 0x00, 0x00, 0x05, 0x00, 0x00, 0x00, 0x00, 0x00, 0x00, 0x09,
  0x04, 0x01, 0x00, 0x00, 0xdc, 0xfc, 0xff, 0xff, 0x08, 0x00, 0x00, 0x00,
  0x88, 0x00, 0x00, 0x00, 0x10, 0x00, 0x00, 0x00, 0x00, 0x00, 0x00, 0x00,
  0x00, 0x00, 0x00, 0x00, 0x00, 0x00, 0x00, 0x00, 0x00, 0x00, 0x00, 0x00,
  0x00, 0x00, 0x00, 0x00, 0x00, 0x00, 0x00, 0x00, 0x00, 0x00, 0x00, 0x00,
  0x00, 0x00, 0x00, 0x00, 0x00, 0x00, 0x00, 0x00, 0x00, 0x00, 0x00, 0x00,
  0x00, 0x00, 0x00, 0x00, 0x00, 0x00, 0x00, 0x00, 0x00, 0x00, 0x00, 0x00,
  0x00, 0x00, 0x00, 0x00, 0x00, 0x00, 0x00, 0x00, 0x00, 0x00, 0x00, 0x00,
  0x00, 0x00, 0x00, 0x00, 0x00, 0x00, 0x00, 0x00, 0x00, 0x00, 0x00, 0x00,
  0x00, 0x00, 0x00, 0x00, 0x00, 0x00, 0x00, 0x00, 0x00, 0x00, 0x00, 0x00,
  0x00, 0x00, 0x00, 0x00, 0x00, 0x00, 0x00, 0x00, 0x00, 0x00, 0x00, 0x00,
  0x00, 0x00, 0x00, 0x00, 0x00, 0x00, 0x00, 0x00, 0x00, 0x00, 0x00, 0x00,
  0x00, 0x00, 0x00, 0x00, 0x00, 0x00, 0x00, 0x00, 0x00, 0x00, 0x00, 0x00,
  0x00, 0x00, 0x00, 0x00, 0x10, 0x00, 0x00, 0x00, 0x6f, 0xd2, 0xb6, 0x3c,
  0xdf, 0xa3, 0x0c, 0x3d, 0xf9, 0x9f, 0x33, 0x3d, 0x31, 0xff, 0x28, 0x3d,
  0x1e, 0xaf, 0x0d, 0x3d, 0x20, 0x1f, 0xd1, 0x3c, 0x83, 0x09, 0x65, 0x3d,
  0x8e, 0x04, 0x36, 0x3d, 0xf7, 0x2a, 0x4e, 0x3d, 0x6b, 0x80, 0x6b, 0x3d,
  0x88, 0x5f, 0x6c, 0x3d, 0x60, 0xd0, 0x48, 0x3c, 0x65, 0xee, 0x33, 0x3d,
  0xbd, 0xc1, 0x0c, 0x3d, 0xc7, 0xbc, 0x0d, 0x3d, 0x2e, 0xc5, 0xc0, 0x3c,
  0x24, 0x00, 0x00, 0x00, 0x68, 0x75, 0x72, 0x6c, 0x65, 0x79, 0x5f, 0x63,
  0x6c, 0x61, 0x73, 0x73, 0x69, 0x66, 0x69, 0x65, 0x72, 0x5f, 0x31, 0x2f,
  0x64, 0x65, 0x6e, 0x73, 0x65, 0x5f, 0x31, 0x5f, 0x32, 0x2f, 0x4d, 0x61,
  0x74, 0x4d, 0x75, 0x6c, 0x00, 0x00, 0x00, 0x00, 0x02, 0x00, 0x00, 0x00,
  0x10, 0x00, 0x00, 0x00, 0x20, 0x00, 0x00, 0x00, 0x1a, 0xfe, 0xff, 0xff,
  0x00, 0x00, 0x00, 0x01, 0x14, 0x00, 0x00, 0x00, 0xe4, 0x00, 0x00, 0x00,
  0x04, 0x00, 0x00, 0x00, 0x00, 0x00, 0x00, 0x02, 0x28, 0x01, 0x00, 0x00,
  0x04, 0xfe, 0xff, 0xff, 0x08, 0x00, 0x00, 0x00, 0x88, 0x00, 0x00, 0x00,
  0x10, 0x00, 0x00, 0x00, 0x00, 0x00, 0x00, 0x00, 0x00, 0x00, 0x00, 0x00,
  0x00, 0x00, 0x00, 0x00, 0x00, 0x00, 0x00, 0x00, 0x00, 0x00, 0x00, 0x00,
  0x00, 0x00, 0x00, 0x00, 0x00, 0x00, 0x00, 0x00, 0x00, 0x00, 0x00, 0x00,
  0x00, 0x00, 0x00, 0x00, 0x00, 0x00, 0x00, 0x00, 0x00, 0x00, 0x00, 0x00,
  0x00, 0x00, 0x00, 0x00, 0x00, 0x00, 0x00, 0x00, 0x00, 0x00, 0x00, 0x00,
  0x00, 0x00, 0x00, 0x00, 0x00, 0x00, 0x00, 0x00, 0x00, 0x00, 0x00, 0x00,
  0x00, 0x00, 0x00, 0x00, 0x00, 0x00, 0x00, 0x00, 0x00, 0x00, 0x00, 0x00,
  0x00, 0x00, 0x00, 0x00, 0x00, 0x00, 0x00, 0x00, 0x00, 0x00, 0x00, 0x00,
  0x00, 0x00, 0x00, 0x00, 0x00, 0x00, 0x00, 0x00, 0x00, 0x00, 0x00, 0x00,
  0x00, 0x00, 0x00, 0x00, 0x00, 0x00, 0x00, 0x00, 0x00, 0x00, 0x00, 0x00,
  0x00, 0x00, 0x00, 0x00, 0x00, 0x00, 0x00, 0x00, 0x00, 0x00, 0x00, 0x00,
  0x10, 0x00, 0x00, 0x00, 0xad, 0xfc, 0xe8, 0x3a, 0x11, 0x3b, 0x33, 0x3b,
  0xa2, 0xe9, 0x64, 0x3b, 0x4b, 0x5e, 0x57, 0x3b, 0xa5, 0x8f, 0x34, 0x3b,
  0x62, 0x40, 0x05, 0x3b, 0x0f, 0xf1, 0x91, 0x3b, 0x4e, 0xf6, 0x67, 0x3b,
  0x90, 0x5e, 0x83, 0x3b, 0x8f, 0x0f, 0x96, 0x3b, 0xb9, 0x9d, 0x96, 0x3b,
  0x74, 0xea, 0x7f, 0x3a, 0x93, 0x4d, 0x65, 0x3b, 0x21, 0x61, 0x33, 0x3b,
  0x0d, 0xa1, 0x34, 0x3b, 0x3b, 0xaa, 0xf5, 0x3a, 0x48, 0x00, 0x00, 0x00,
  0x68, 0x75, 0x72, 0x6c, 0x65, 0x79, 0x5f, 0x63, 0x6c, 0x61, 0x73, 0x73,
  0x69, 0x66, 0x69, 0x65, 0x72, 0x5f, 0x31, 0x2f, 0x64, 0x65, 0x6e, 0x73,
  0x65, 0x5f, 0x31, 0x5f, 0x32, 0x2f, 0x52, 0x65, 0x6c, 0x75, 0x3b, 0x68,
  0x75, 0x72, 0x6c, 0x65, 0x79, 0x5f, 0x63, 0x6c, 0x61, 0x73, 0x73, 0x69,
  0x66, 0x69, 0x65, 0x72, 0x5f, 0x31, 0x2f, 0x64, 0x65, 0x6e, 0x73, 0x65,
  0x5f, 0x31, 0x5f, 0x32, 0x2f, 0x42, 0x69, 0x61, 0x73, 0x41, 0x64, 0x64,
  0x00, 0x00, 0x00, 0x00, 0x01, 0x00, 0x00, 0x00, 0x10, 0x00, 0x00, 0x00,
  0x62, 0xff, 0xff, 0xff, 0x00, 0x00, 0x00, 0x01, 0x14, 0x00, 0x00, 0x00,
  0x58, 0x00, 0x00, 0x00, 0x03, 0x00, 0x00, 0x00, 0x00, 0x00, 0x00, 0x09,
  0x78, 0x00, 0x00, 0x00, 0x4c, 0xff, 0xff, 0xff, 0x08, 0x00, 0x00, 0x00,
  0x2c, 0x00, 0x00, 0x00, 0x04, 0x00, 0x00, 0x00, 0x00, 0x00, 0x00, 0x00,
  0x00, 0x00, 0x00, 0x00, 0x00, 0x00, 0x00, 0x00, 0x00, 0x00, 0x00, 0x00,
  0x00, 0x00, 0x00, 0x00, 0x00, 0x00, 0x00, 0x00, 0x00, 0x00, 0x00, 0x00,
  0x00, 0x00, 0x00, 0x00, 0x00, 0x00, 0x00, 0x00, 0x04, 0x00, 0x00, 0x00,
  0xf1, 0xe1, 0xe8, 0x3c, 0x76, 0x29, 0x24, 0x3c, 0x46, 0xbe, 0xcd, 0x3c,
  0x6a, 0xe9, 0x3a, 0x3d, 0x24, 0x00, 0x00, 0x00, 0x68, 0x75, 0x72, 0x6c,
  0x65, 0x79, 0x5f, 0x63, 0x6c, 0x61, 0x73, 0x73, 0x69, 0x66, 0x69, 0x65,
  0x72, 0x5f, 0x31, 0x2f, 0x64, 0x65, 0x6e, 0x73, 0x65, 0x5f, 0x32, 0x5f,
  0x31, 0x2f, 0x4d, 0x61, 0x74, 0x4d, 0x75, 0x6c, 0x00, 0x00, 0x00, 0x00,
  0x02, 0x00, 0x00, 0x00, 0x04, 0x00, 0x00, 0x00, 0x10, 0x00, 0x00, 0x00,
  0x00, 0x00, 0x16, 0x00, 0x1c, 0x00, 0x18, 0x00, 0x17, 0x00, 0x10, 0x00,
  0x0c, 0x00, 0x08, 0x00, 0x00, 0x00, 0x00, 0x00, 0x00, 0x00, 0x07, 0x00,
  0x16, 0x00, 0x00, 0x00, 0x00, 0x00, 0x00, 0x01, 0x20, 0x00, 0x00, 0x00,
  0x60, 0x00, 0x00, 0x00, 0x02, 0x00, 0x00, 0x00, 0x00, 0x00, 0x00, 0x02,
  0x80, 0x00, 0x00, 0x00, 0x0c, 0x00, 0x0c, 0x00, 0x00, 0x00, 0x00, 0x00,
  0x08, 0x00, 0x04, 0x00, 0x0c, 0x00, 0x00, 0x00, 0x08, 0x00, 0x00, 0x00,
  0x28, 0x00, 0x00, 0x00, 0x04, 0x00, 0x00, 0x00, 0x00, 0x00, 0x00, 0x00,
  0x00, 0x00, 0x00, 0x00, 0x00, 0x00, 0x00, 0x00, 0x00, 0x00, 0x00, 0x00,
  0x00, 0x00, 0x00, 0x00, 0x00, 0x00, 0x00, 0x00, 0x00, 0x00, 0x00, 0x00,
  0x00, 0x00, 0x00, 0x00, 0x04, 0x00, 0x00, 0x00, 0xdc, 0x03, 0x1a, 0x3c,
  0x6c, 0x22, 0x59, 0x3b, 0x13, 0x11, 0x08, 0x3c, 0xad, 0x39, 0x77, 0x3c,
  0x25, 0x00, 0x00, 0x00, 0x68, 0x75, 0x72, 0x6c, 0x65, 0x79, 0x5f, 0x63,
  0x6c, 0x61, 0x73, 0x73, 0x69, 0x66, 0x69, 0x65, 0x72, 0x5f, 0x31, 0x2f,
  0x64, 0x65, 0x6e, 0x73, 0x65, 0x5f, 0x32, 0x5f, 0x31, 0x2f, 0x42, 0x69,
  0x61, 0x73, 0x41, 0x64, 0x64, 0x00, 0x00, 0x00, 0x01, 0x00, 0x00, 0x00,
  0x04, 0x00, 0x00, 0x00, 0x00, 0x00, 0x16, 0x00, 0x1c, 0x00, 0x18, 0x00,
  0x00, 0x00, 0x14, 0x00, 0x10, 0x00, 0x0c, 0x00, 0x00, 0x00, 0x00, 0x00,
  0x08, 0x00, 0x07, 0x00, 0x16, 0x00, 0x00, 0x00, 0x00, 0x00, 0x00, 0x01,
  0x14, 0x00, 0x00, 0x00, 0x20, 0x00, 0x00, 0x00, 0x20, 0x00, 0x00, 0x00,
  0x01, 0x00, 0x00, 0x00, 0x3c, 0x00, 0x00, 0x00, 0x02, 0x00, 0x00, 0x00,
  0xff, 0xff, 0xff, 0xff, 0x1f, 0x00, 0x00, 0x00, 0x04, 0x00, 0x04, 0x00,
  0x04, 0x00, 0x00, 0x00, 0x1e, 0x00, 0x00, 0x00, 0x73, 0x65, 0x72, 0x76,
  0x69, 0x6e, 0x67, 0x5f, 0x64, 0x65, 0x66, 0x61, 0x75, 0x6c, 0x74, 0x5f,
  0x6b, 0x65, 0x72, 0x61, 0x73, 0x5f, 0x74, 0x65, 0x6e, 0x73, 0x6f, 0x72,
  0x3a, 0x30, 0x00, 0x00, 0x02, 0x00, 0x00, 0x00, 0x01, 0x00, 0x00, 0x00,
  0x1f, 0x00, 0x00, 0x00, 0x04, 0x00, 0x00, 0x00, 0x58, 0x00, 0x00, 0x00,
  0x38, 0x00, 0x00, 0x00, 0x18, 0x00, 0x00, 0x00, 0x04, 0x00, 0x00, 0x00,
  0xe0, 0xff, 0xff, 0xff, 0x06, 0x00, 0x00, 0x00, 0x02, 0x00, 0x00, 0x00,
  0x00, 0x00, 0x00, 0x06, 0xf0, 0xff, 0xff, 0xff, 0x19, 0x00, 0x00, 0x00,
  0x02, 0x00, 0x00, 0x00, 0x00, 0x00, 0x00, 0x19, 0x0c, 0x00, 0x10, 0x00,
  0x0f, 0x00, 0x00, 0x00, 0x08, 0x00, 0x04, 0x00, 0x0c, 0x00, 0x00, 0x00,
  0x09, 0x00, 0x00, 0x00, 0x04, 0x00, 0x00, 0x00, 0x00, 0x00, 0x00, 0x09,
  0x0c, 0x00, 0x0c, 0x00, 0x0b, 0x00, 0x00, 0x00, 0x00, 0x00, 0x04, 0x00,
  0x0c, 0x00, 0x00, 0x00, 0x72, 0x00, 0x00, 0x00, 0x00, 0x00, 0x00, 0x72
};
// Scaler parameters for normalisation (mean and scale values for each feature)
const float SCALER_MEAN[31] = {1.726578f, 1.044831f, 4.794734f, 0.732400f, 2.133415f, 120.873489f, 89.958983f, 383.636691f, 30.566357f, 153.318156f, -0.795279f, 0.975241f, 0.330541f, 0.434085f, 0.069635f, 0.522561f, 15.147711f, 67.806467f, -0.551398f, 74.258149f, 5.824702f, 71.562848f, 1.545337f, 0.885915f, 3.985888f, 2.378994f, 81.889178f, 3.069055f, 191.621837f, 13.414378f, 29.589585f};
const float SCALER_SCALE[31] = {1.567443f, 1.805339f, 6.105225f, 0.315103f, 2.279012f, 165.063301f, 144.271710f, 580.537903f, 46.472251f, 216.720355f, 1.678638f, 1.838330f, 0.503568f, 0.575637f, 0.490347f, 0.788016f, 74.254720f, 96.728740f, 68.872587f, 130.146872f, 53.500757f, 127.042298f, 3.466997f, 1.785553f, 12.735131f, 2.446578f, 135.302838f, 1.961366f, 429.907656f, 25.102501f, 63.622904f};

// Class names and constants for number of classes and features
const char* CLASS_NAMES[] = {"idle", "swing", "impact", "fake_hit"};
const int   NUM_CLASSES   = 4;
const int   NUM_FEATURES  = 31;

#endif
