// AUTO-GENERATED by 3_convert_to_arduino_cnn.py
// Smart Hurley TinyML CNN Model
// Architecture : 1D CNN
// Input shape  : (100, 6)  ->  raw IMU window (ax, ay, az, gx, gy, gz)
// Classes      : idle, swing, impact, fake_hit
// Size         : 25.7 KB

#ifndef HURLEY_CNN_MODEL_H
#define HURLEY_CNN_MODEL_H

#include <stdint.h>

// Model data weights
const unsigned int  hurley_model_len    = 26320;
const unsigned char hurley_model_data[] = {
  0x20, 0x00, 0x00, 0x00, 0x54, 0x46, 0x4c, 0x33, 0x00, 0x00, 0x00, 0x00,
  0x14, 0x00, 0x20, 0x00, 0x1c, 0x00, 0x18, 0x00, 0x14, 0x00, 0x10, 0x00,
  0x0c, 0x00, 0x00, 0x00, 0x08, 0x00, 0x04, 0x00, 0x14, 0x00, 0x00, 0x00,
  0x1c, 0x00, 0x00, 0x00, 0x8c, 0x00, 0x00, 0x00, 0xe4, 0x00, 0x00, 0x00,
  0x9c, 0x33, 0x00, 0x00, 0xac, 0x33, 0x00, 0x00, 0xa0, 0x65, 0x00, 0x00,
  0x03, 0x00, 0x00, 0x00, 0x01, 0x00, 0x00, 0x00, 0x04, 0x00, 0x00, 0x00,
  0x96, 0xc8, 0xff, 0xff, 0x0c, 0x00, 0x00, 0x00, 0x1c, 0x00, 0x00, 0x00,
  0x3c, 0x00, 0x00, 0x00, 0x0f, 0x00, 0x00, 0x00, 0x73, 0x65, 0x72, 0x76,
  0x69, 0x6e, 0x67, 0x5f, 0x64, 0x65, 0x66, 0x61, 0x75, 0x6c, 0x74, 0x00,
  0x01, 0x00, 0x00, 0x00, 0x04, 0x00, 0x00, 0x00, 0x90, 0xff, 0xff, 0xff,
  0x28, 0x00, 0x00, 0x00, 0x04, 0x00, 0x00, 0x00, 0x08, 0x00, 0x00, 0x00,
  0x6f, 0x75, 0x74, 0x70, 0x75, 0x74, 0x5f, 0x30, 0x00, 0x00, 0x00, 0x00,
  0x01, 0x00, 0x00, 0x00, 0x04, 0x00, 0x00, 0x00, 0xe6, 0xcb, 0xff, 0xff,
  0x04, 0x00, 0x00, 0x00, 0x0c, 0x00, 0x00, 0x00, 0x6b, 0x65, 0x72, 0x61,
  0x73, 0x5f, 0x74, 0x65, 0x6e, 0x73, 0x6f, 0x72, 0x00, 0x00, 0x00, 0x00,
  0x02, 0x00, 0x00, 0x00, 0x34, 0x00, 0x00, 0x00, 0x04, 0x00, 0x00, 0x00,
  0xdc, 0xff, 0xff, 0xff, 0x2b, 0x00, 0x00, 0x00, 0x04, 0x00, 0x00, 0x00,
  0x13, 0x00, 0x00, 0x00, 0x43, 0x4f, 0x4e, 0x56, 0x45, 0x52, 0x53, 0x49,
  0x4f, 0x4e, 0x5f, 0x4d, 0x45, 0x54, 0x41, 0x44, 0x41, 0x54, 0x41, 0x00,
  0x08, 0x00, 0x0c, 0x00, 0x08, 0x00, 0x04, 0x00, 0x08, 0x00, 0x00, 0x00,
  0x2a, 0x00, 0x00, 0x00, 0x04, 0x00, 0x00, 0x00, 0x13, 0x00, 0x00, 0x00,
  0x6d, 0x69, 0x6e, 0x5f, 0x72, 0x75, 0x6e, 0x74, 0x69, 0x6d, 0x65, 0x5f,
  0x76, 0x65, 0x72, 0x73, 0x69, 0x6f, 0x6e, 0x00, 0x2c, 0x00, 0x00, 0x00,
  0xb4, 0x32, 0x00, 0x00, 0xac, 0x32, 0x00, 0x00, 0x98, 0x32, 0x00, 0x00,
  0x7c, 0x32, 0x00, 0x00, 0x68, 0x32, 0x00, 0x00, 0x4c, 0x32, 0x00, 0x00,
  0x30, 0x32, 0x00, 0x00, 0x14, 0x32, 0x00, 0x00, 0xf4, 0x31, 0x00, 0x00,
  0xe4, 0x30, 0x00, 0x00, 0xd4, 0x2f, 0x00, 0x00, 0xc4, 0x1f, 0x00, 0x00,
  0x74, 0x1f, 0x00, 0x00, 0x24, 0x1f, 0x00, 0x00, 0x14, 0x1e, 0x00, 0x00,
  0x04, 0x06, 0x00, 0x00, 0xd4, 0x05, 0x00, 0x00, 0xa4, 0x05, 0x00, 0x00,
  0x14, 0x05, 0x00, 0x00, 0x44, 0x01, 0x00, 0x00, 0x3c, 0x01, 0x00, 0x00,
  0x34, 0x01, 0x00, 0x00, 0x2c, 0x01, 0x00, 0x00, 0x24, 0x01, 0x00, 0x00,
  0x1c, 0x01, 0x00, 0x00, 0x14, 0x01, 0x00, 0x00, 0x0c, 0x01, 0x00, 0x00,
  0x04, 0x01, 0x00, 0x00, 0xfc, 0x00, 0x00, 0x00, 0xf4, 0x00, 0x00, 0x00,
  0xec, 0x00, 0x00, 0x00, 0xe4, 0x00, 0x00, 0x00, 0xdc, 0x00, 0x00, 0x00,
  0xd4, 0x00, 0x00, 0x00, 0xcc, 0x00, 0x00, 0x00, 0xc4, 0x00, 0x00, 0x00,
  0xbc, 0x00, 0x00, 0x00, 0xb4, 0x00, 0x00, 0x00, 0xac, 0x00, 0x00, 0x00,
  0xa4, 0x00, 0x00, 0x00, 0x9c, 0x00, 0x00, 0x00, 0x94, 0x00, 0x00, 0x00,
  0x74, 0x00, 0x00, 0x00, 0x04, 0x00, 0x00, 0x00, 0x12, 0xcd, 0xff, 0xff,
  0x04, 0x00, 0x00, 0x00, 0x60, 0x00, 0x00, 0x00, 0x0c, 0x00, 0x00, 0x00,
  0x08, 0x00, 0x0e, 0x00, 0x08, 0x00, 0x04, 0x00, 0x08, 0x00, 0x00, 0x00,
  0x10, 0x00, 0x00, 0x00, 0x28, 0x00, 0x00, 0x00, 0x00, 0x00, 0x06, 0x00,
  0x08, 0x00, 0x04, 0x00, 0x06, 0x00, 0x00, 0x00, 0x04, 0x00, 0x00, 0x00,
  0x01, 0x00, 0x00, 0x00, 0xeb, 0x03, 0x00, 0x00, 0x0c, 0x00, 0x18, 0x00,
  0x14, 0x00, 0x10, 0x00, 0x0c, 0x00, 0x04, 0x00, 0x0c, 0x00, 0x00, 0x00,
  0xce, 0xe7, 0xee, 0xf9, 0x1e, 0x06, 0x59, 0xfe, 0x02, 0x00, 0x00, 0x00,
  0x02, 0x00, 0x00, 0x00, 0x04, 0x00, 0x00, 0x00, 0x06, 0x00, 0x00, 0x00,
  0x32, 0x2e, 0x32, 0x31, 0x2e, 0x30, 0x00, 0x00, 0x7e, 0xcd, 0xff, 0xff,
  0x04, 0x00, 0x00, 0x00, 0x10, 0x00, 0x00, 0x00, 0x31, 0x2e, 0x31, 0x34,
  0x2e, 0x30, 0x00, 0x00, 0x00, 0x00, 0x00, 0x00, 0x00, 0x00, 0x00, 0x00,
  0xb0, 0x9c, 0xff, 0xff, 0xb4, 0x9c, 0xff, 0xff, 0xb8, 0x9c, 0xff, 0xff,
  0xbc, 0x9c, 0xff, 0xff, 0xc0, 0x9c, 0xff, 0xff, 0xc4, 0x9c, 0xff, 0xff,
  0xc8, 0x9c, 0xff, 0xff, 0xcc, 0x9c, 0xff, 0xff, 0xd0, 0x9c, 0xff, 0xff,
  0xd4, 0x9c, 0xff, 0xff, 0xd8, 0x9c, 0xff, 0xff, 0xdc, 0x9c, 0xff, 0xff,
  0xe0, 0x9c, 0xff, 0xff, 0xe4, 0x9c, 0xff, 0xff, 0xe8, 0x9c, 0xff, 0xff,
  0xec, 0x9c, 0xff, 0xff, 0xf0, 0x9c, 0xff, 0xff, 0xf4, 0x9c, 0xff, 0xff,
  0xf8, 0x9c, 0xff, 0xff, 0xfc, 0x9c, 0xff, 0xff, 0x00, 0x9d, 0xff, 0xff,
  0x04, 0x9d, 0xff, 0xff, 0xf2, 0xcd, 0xff, 0xff, 0x04, 0x00, 0x00, 0x00,
  0xc0, 0x03, 0x00, 0x00, 0xd7, 0xe4, 0xa3, 0xa6, 0xdb, 0x37, 0xca, 0x35,
  0xc9, 0xe5, 0xf5, 0x23, 0x0c, 0xc3, 0x10, 0x2e, 0xd1, 0x1d, 0x04, 0xd4,
  0xf4, 0x1b, 0xe0, 0xe5, 0x0a, 0x81, 0x0c, 0xb1, 0x19, 0xb9, 0x12, 0x0c,
  0x81, 0xcf, 0x28, 0xfb, 0x0e, 0x2f, 0xba, 0xf3, 0x30, 0xf8, 0x10, 0x41,
  0xd7, 0xdd, 0x15, 0x21, 0xe2, 0x49, 0x35, 0xe6, 0xdd, 0x25, 0xe2, 0x2e,
  0x1c, 0x15, 0xb6, 0x23, 0xcb, 0xf0, 0x34, 0xcc, 0xe9, 0xcb, 0xe0, 0x03,
  0x0b, 0xdf, 0xf6, 0x81, 0xf7, 0x05, 0x14, 0xfc, 0xf3, 0xa4, 0x5e, 0x2d,
  0x03, 0xde, 0x24, 0xd1, 0x5f, 0x4c, 0x4a, 0xe5, 0x1f, 0xfe, 0x62, 0x16,
  0x21, 0x54, 0xd1, 0xfd, 0x67, 0x21, 0x10, 0x1a, 0xd8, 0xf0, 0x7f, 0x25,
  0x04, 0xf8, 0xc6, 0x04, 0x64, 0x31, 0xec, 0x01, 0xc9, 0xca, 0x68, 0x08,
  0x1c, 0x93, 0xf5, 0xe0, 0xf9, 0xec, 0xe5, 0x89, 0xef, 0x0b, 0x01, 0x06,
  0x08, 0xb6, 0x04, 0x01, 0xf3, 0xfc, 0x1b, 0xf3, 0x0c, 0x09, 0x0b, 0xfb,
  0xfd, 0x41, 0xfa, 0xfa, 0x02, 0x18, 0xf7, 0x7f, 0x01, 0x0b, 0xeb, 0x36,
  0x6c, 0xe2, 0xd6, 0x11, 0xfd, 0x5e, 0x63, 0x02, 0xfa, 0x21, 0xfe, 0x50,
  0x55, 0x01, 0x0e, 0xf2, 0x08, 0x28, 0x7f, 0xd4, 0x00, 0x11, 0x01, 0x25,
  0x07, 0xe6, 0x0e, 0x01, 0x09, 0xff, 0x1c, 0x81, 0xd7, 0xea, 0xf1, 0x08,
  0x00, 0xb4, 0xbe, 0xf4, 0xef, 0x17, 0xf0, 0xe9, 0xa6, 0xe5, 0x10, 0xec,
  0xf5, 0xc3, 0xbc, 0xfc, 0xfd, 0xfa, 0xf5, 0x81, 0xdf, 0x19, 0x71, 0xc6,
  0xfb, 0xdb, 0xb4, 0xcf, 0x6b, 0xe2, 0xe7, 0x01, 0x94, 0xcd, 0x52, 0xc9,
  0xe8, 0x06, 0x99, 0xf5, 0x38, 0xba, 0xda, 0x1b, 0x81, 0xdc, 0x4f, 0xcd,
  0xee, 0x1d, 0x98, 0xff, 0xf0, 0xf4, 0x95, 0x05, 0xd9, 0x07, 0x1e, 0xf0,
  0x7f, 0xf5, 0xfb, 0xfb, 0x09, 0xff, 0xd1, 0x01, 0x08, 0xf7, 0x0f, 0x29,
  0x19, 0x18, 0x1a, 0x0a, 0xf0, 0xf0, 0xee, 0xed, 0x0c, 0xfc, 0xba, 0xff,
  0x14, 0x34, 0xd7, 0xf7, 0xaf, 0x04, 0x48, 0x43, 0xbe, 0x0a, 0x9c, 0x1c,
  0xfd, 0x5b, 0xea, 0x09, 0x81, 0x07, 0xed, 0x36, 0xcb, 0x31, 0xb8, 0xf5,
  0xce, 0x3b, 0xde, 0x1d, 0x0a, 0xff, 0x06, 0xf1, 0x1e, 0xab, 0xf3, 0xfc,
  0xee, 0xe7, 0x40, 0xb3, 0x0d, 0xf6, 0xf7, 0xaf, 0x4a, 0xdb, 0x10, 0xfa,
  0x1f, 0x86, 0x4b, 0x0d, 0xf6, 0x06, 0x03, 0x81, 0x40, 0x3b, 0x2f, 0xd0,
  0xb9, 0x13, 0xf8, 0x21, 0x48, 0xe5, 0xee, 0x17, 0x1d, 0x1b, 0x7f, 0x03,
  0x02, 0xdd, 0x48, 0x04, 0x70, 0xf6, 0xcd, 0x01, 0x1b, 0xdf, 0x79, 0xf8,
  0xc3, 0x25, 0x3b, 0xc9, 0x0e, 0x2a, 0x7f, 0xec, 0xc4, 0x02, 0x9c, 0x33,
  0x1b, 0x1c, 0x0d, 0x0e, 0x2c, 0x43, 0xf1, 0xae, 0x1d, 0x0a, 0x16, 0x92,
  0xb2, 0x2c, 0xf0, 0x24, 0x1b, 0xc4, 0xca, 0xe6, 0xf7, 0x02, 0x13, 0x07,
  0xf9, 0x01, 0xed, 0x66, 0x0e, 0x0c, 0xfd, 0x00, 0x06, 0x7f, 0x1f, 0x0f,
  0x00, 0xf8, 0x02, 0x65, 0x1c, 0x0e, 0xfe, 0xf6, 0x0a, 0x6b, 0x16, 0x0a,
  0xff, 0xee, 0xf6, 0x3a, 0xac, 0x4f, 0x26, 0xae, 0xfe, 0x83, 0x92, 0x62,
  0x46, 0xb2, 0xdb, 0xda, 0x96, 0x73, 0x5a, 0x93, 0xcd, 0xe5, 0x81, 0x73,
  0x69, 0x8e, 0xcd, 0x20, 0xa2, 0x3e, 0x4a, 0x9d, 0x96, 0x6b, 0x11, 0x0d,
  0x21, 0xed, 0xe9, 0x3b, 0x12, 0xf5, 0x3a, 0xd8, 0xea, 0x4f, 0x1f, 0xe6,
  0x37, 0x03, 0xf8, 0x42, 0x1d, 0xfb, 0x58, 0x09, 0xef, 0x3e, 0xff, 0x06,
  0x7f, 0x0e, 0x01, 0x13, 0x3f, 0x04, 0x26, 0x7f, 0xb5, 0x04, 0x40, 0x05,
  0x05, 0x3c, 0xdb, 0xff, 0x23, 0xef, 0x2b, 0x3e, 0xdb, 0x2c, 0x4e, 0x12,
  0x32, 0x1f, 0xf8, 0x43, 0x55, 0xfd, 0xc3, 0x02, 0x16, 0x28, 0x49, 0x00,
  0xbe, 0xc9, 0x9a, 0x32, 0x14, 0x38, 0x0b, 0xc6, 0x9b, 0x74, 0x30, 0x0b,
  0x2d, 0xd7, 0xb5, 0x67, 0x53, 0xda, 0xe0, 0x81, 0xcb, 0x77, 0x58, 0x18,
  0x0e, 0xb6, 0xd9, 0x47, 0x1d, 0x32, 0xb2, 0x56, 0x89, 0xda, 0x36, 0x2a,
  0x85, 0x07, 0x81, 0xc8, 0xed, 0x13, 0xa2, 0x0c, 0xb1, 0xc4, 0xda, 0x44,
  0xb1, 0xfc, 0xd3, 0xf8, 0x33, 0x02, 0x9c, 0xf6, 0xdd, 0xce, 0x05, 0xfc,
  0xfc, 0xe3, 0xb6, 0xd7, 0xf5, 0x00, 0xf8, 0xf5, 0xa3, 0xdf, 0x01, 0xf9,
  0x09, 0xe7, 0x90, 0xec, 0xfe, 0x0a, 0x06, 0xee, 0x81, 0xef, 0x00, 0xff,
  0xfb, 0xec, 0x81, 0x06, 0x1b, 0xda, 0x01, 0x32, 0x3c, 0x08, 0x22, 0xb9,
  0x1b, 0x16, 0x34, 0x1c, 0x02, 0xc8, 0xe6, 0x05, 0x25, 0xf5, 0xed, 0xb1,
  0xfa, 0x31, 0x1b, 0xd0, 0x0a, 0x81, 0xd8, 0x11, 0xe5, 0x9d, 0xc3, 0x31,
  0xb8, 0xae, 0xed, 0xf7, 0xb6, 0x2e, 0xb2, 0xe4, 0xd6, 0x0f, 0xa3, 0xf4,
  0x81, 0xfd, 0x07, 0xfd, 0xa2, 0x0f, 0xa9, 0x16, 0x18, 0xf7, 0xa2, 0xe0,
  0xae, 0x2b, 0x03, 0xef, 0x89, 0x08, 0x68, 0x32, 0x7f, 0x24, 0x8c, 0xd8,
  0x40, 0x33, 0x29, 0xec, 0x96, 0xee, 0x58, 0x27, 0x34, 0x00, 0x92, 0xf6,
  0x4a, 0xce, 0x5a, 0x35, 0xc8, 0xc7, 0x5e, 0x91, 0x7e, 0x27, 0xf2, 0x49,
  0x22, 0x09, 0x03, 0xf9, 0x01, 0x2f, 0xdd, 0x26, 0xf7, 0xf9, 0xe8, 0xc5,
  0xea, 0x11, 0x16, 0xd5, 0xf8, 0xfd, 0x08, 0x1b, 0x08, 0xf0, 0xf8, 0x14,
  0x81, 0x28, 0x1d, 0xe6, 0x2f, 0x22, 0x29, 0x0f, 0x27, 0x25, 0x38, 0xcd,
  0xbc, 0xca, 0xfc, 0x76, 0x1c, 0xa5, 0xfa, 0xe4, 0x19, 0x7f, 0x3b, 0xb4,
  0x21, 0xba, 0xd4, 0x59, 0x1e, 0x9d, 0xdd, 0xb8, 0xec, 0x63, 0x07, 0xe7,
  0x11, 0xe5, 0x93, 0x12, 0x1e, 0xff, 0x17, 0xee, 0x9a, 0x21, 0x19, 0xed,
  0xd4, 0xec, 0xb5, 0xf5, 0x1f, 0xe5, 0xe5, 0xe6, 0xdf, 0x0d, 0x18, 0x07,
  0x81, 0xa7, 0x02, 0xe5, 0xfc, 0x01, 0x04, 0x0b, 0x33, 0xea, 0x02, 0xfd,
  0xfc, 0x0e, 0x5d, 0xec, 0x01, 0x02, 0x04, 0x13, 0x5c, 0xfa, 0x05, 0xff,
  0x00, 0x09, 0x7f, 0xff, 0xfd, 0x02, 0xff, 0x0c, 0x76, 0x0c, 0x11, 0xea,
  0xec, 0x4b, 0x3a, 0xc5, 0x13, 0x00, 0x13, 0x51, 0x23, 0xd8, 0xe1, 0x0c,
  0xf1, 0x7f, 0x1a, 0xd5, 0xfb, 0x0a, 0x09, 0x54, 0x2f, 0xcc, 0xfc, 0xfe,
  0x0f, 0x7d, 0x14, 0xe4, 0x7f, 0x2e, 0xf7, 0xd4, 0x28, 0xdf, 0x7a, 0x42,
  0x0d, 0xd4, 0x0f, 0x06, 0x42, 0x46, 0x0d, 0xde, 0x03, 0x0f, 0x49, 0x4f,
  0x1f, 0xcc, 0x1b, 0x16, 0x69, 0x38, 0x16, 0xcd, 0x07, 0x2e, 0xf5, 0x6d,
  0xd4, 0x34, 0xdd, 0xf2, 0xc9, 0x37, 0xad, 0x26, 0x12, 0xa8, 0xe3, 0x7f,
  0xa5, 0x38, 0xf4, 0xf1, 0xb5, 0x38, 0xa7, 0xfc, 0x01, 0x0f, 0xa9, 0x71,
  0xdc, 0xe5, 0x39, 0x3a, 0x81, 0x00, 0x29, 0xfe, 0xfb, 0x0e, 0x83, 0x00,
  0x2e, 0xf1, 0x08, 0x0b, 0x87, 0x01, 0x36, 0xf0, 0xff, 0x13, 0xa0, 0x04,
  0x08, 0xfd, 0x0c, 0x02, 0xb7, 0x10, 0x01, 0xee, 0x0d, 0x28, 0xa0, 0x06,
  0x24, 0xc4, 0xf3, 0xf6, 0x8f, 0xfd, 0xed, 0xcf, 0xe3, 0xf7, 0x81, 0xee,
  0x08, 0xeb, 0xf7, 0x13, 0x96, 0xf6, 0xe9, 0xe5, 0xc9, 0x0e, 0xb1, 0x0c,
  0x2c, 0x0a, 0xe2, 0x07, 0xbe, 0xd1, 0xff, 0xff, 0x04, 0x00, 0x00, 0x00,
  0x80, 0x00, 0x00, 0x00, 0x2c, 0xfe, 0xff, 0xff, 0xed, 0xfc, 0xff, 0xff,
  0x93, 0xf8, 0xff, 0xff, 0x64, 0xfb, 0xff, 0xff, 0x01, 0x00, 0x00, 0x00,
  0xec, 0xfc, 0xff, 0xff, 0x4d, 0xfe, 0xff, 0xff, 0x49, 0xff, 0xff, 0xff,
  0xf1, 0xfe, 0xff, 0xff, 0x96, 0x00, 0x00, 0x00, 0x82, 0xfe, 0xff, 0xff,
  0xe9, 0xf7, 0xff, 0xff, 0x3a, 0xff, 0xff, 0xff, 0x9c, 0xfe, 0xff, 0xff,
  0xef, 0xfe, 0xff, 0xff, 0x27, 0x00, 0x00, 0x00, 0xf9, 0xfb, 0xff, 0xff,
  0xb5, 0xfd, 0xff, 0xff, 0x4b, 0xfa, 0xff, 0xff, 0x87, 0xff, 0xff, 0xff,
  0xb7, 0xfa, 0xff, 0xff, 0x7f, 0xff, 0xff, 0xff, 0x6a, 0xfd, 0xff, 0xff,
  0x78, 0xfc, 0xff, 0xff, 0xd6, 0xfc, 0xff, 0xff, 0x80, 0xfe, 0xff, 0xff,
  0x1e, 0x00, 0x00, 0x00, 0x68, 0x01, 0x00, 0x00, 0x99, 0xfa, 0xff, 0xff,
  0x3d, 0xfb, 0xff, 0xff, 0xc0, 0x01, 0x00, 0x00, 0x27, 0xff, 0xff, 0xff,
  0x4a, 0xd2, 0xff, 0xff, 0x04, 0x00, 0x00, 0x00, 0x20, 0x00, 0x00, 0x00,
  0x03, 0xbe, 0x0c, 0xf0, 0xeb, 0xb4, 0xd5, 0xbb, 0x6b, 0x91, 0xa3, 0x3f,
  0x7f, 0x9f, 0xb7, 0x9e, 0xe3, 0xb5, 0xc3, 0x94, 0xd2, 0xa4, 0xb1, 0x05,
  0xbe, 0xc9, 0x91, 0xa1, 0xbe, 0xb9, 0x9a, 0x96, 0x76, 0xd2, 0xff, 0xff,
  0x04, 0x00, 0x00, 0x00, 0x20, 0x00, 0x00, 0x00, 0x37, 0x18, 0x44, 0xe6,
  0x11, 0x11, 0x22, 0x80, 0x4c, 0x59, 0x1b, 0x1c, 0x53, 0x20, 0x10, 0x0a,
  0x18, 0x24, 0x2c, 0x29, 0x17, 0x2d, 0x49, 0x48, 0x2d, 0x01, 0x16, 0x28,
  0x95, 0x25, 0x5c, 0x7f, 0xa2, 0xd2, 0xff, 0xff, 0x04, 0x00, 0x00, 0x00,
  0x00, 0x18, 0x00, 0x00, 0xed, 0xfd, 0xfd, 0x1e, 0x10, 0xf4, 0xf5, 0x09,
  0x9a, 0x00, 0xfe, 0x0a, 0xeb, 0x17, 0x05, 0x07, 0x08, 0x2f, 0x0a, 0xec,
  0x03, 0x0a, 0x03, 0x0d, 0xe7, 0x13, 0xfd, 0x0b, 0x10, 0x1b, 0xff, 0x18,
  0xdd, 0xf8, 0x09, 0x19, 0xfe, 0xf9, 0xf8, 0x0d, 0x87, 0x00, 0x01, 0x13,
  0xd4, 0x11, 0xfe, 0x0a, 0xdf, 0x0c, 0x0f, 0xfa, 0xfb, 0x0e, 0x09, 0x18,
  0xed, 0x11, 0xf8, 0x04, 0x16, 0x0a, 0x05, 0x1b, 0xe7, 0xe4, 0x01, 0x0b,
  0xfa, 0xfb, 0x0f, 0x0a, 0x81, 0xfe, 0x0c, 0x0a, 0xe3, 0x09, 0xfa, 0x10,
  0x00, 0x08, 0x04, 0xea, 0xf8, 0x1c, 0x00, 0xfd, 0xf4, 0x0b, 0xf6, 0x04,
  0x0f, 0x0f, 0x00, 0x1f, 0x02, 0x01, 0x1d, 0x0b, 0xfe, 0xf4, 0xd9, 0xf9,
  0x01, 0xfe, 0x05, 0x05, 0x01, 0x00, 0x05, 0x06, 0xfd, 0x05, 0x03, 0xfa,
  0xf7, 0xfc, 0x04, 0x05, 0x03, 0x02, 0xde, 0x93, 0x08, 0x01, 0xfb, 0x02,
  0x00, 0xf7, 0x12, 0xf3, 0xf5, 0x08, 0xbc, 0x0b, 0xf8, 0xf8, 0xf7, 0xf5,
  0xf5, 0x00, 0xfe, 0x06, 0x06, 0x07, 0x01, 0xec, 0xf9, 0xfb, 0x07, 0x07,
  0x01, 0x03, 0xee, 0x81, 0xfd, 0xff, 0x0a, 0xfb, 0x05, 0x03, 0x1b, 0x05,
  0x01, 0xf5, 0xca, 0xf9, 0xfa, 0x00, 0xf4, 0x05, 0x04, 0x01, 0x05, 0xfa,
  0xf5, 0x03, 0xfb, 0xf9, 0xf6, 0xfb, 0xff, 0x0c, 0x00, 0xf5, 0xb1, 0xa6,
  0xf4, 0xf9, 0x05, 0xfc, 0x0b, 0x08, 0xd2, 0x8e, 0x0a, 0x18, 0xea, 0x0b,
  0xfa, 0x1b, 0xf9, 0x03, 0x09, 0xd0, 0x0c, 0x04, 0xba, 0xec, 0xfa, 0x00,
  0xfb, 0xcb, 0x04, 0xee, 0xfb, 0xea, 0xfa, 0xfd, 0x1a, 0xee, 0xf8, 0xe6,
  0x08, 0x09, 0xc9, 0x81, 0x00, 0x0b, 0xc9, 0x02, 0xef, 0x11, 0x02, 0xf9,
  0xfd, 0xbf, 0xfe, 0x08, 0xb4, 0xe0, 0xf3, 0xf3, 0xef, 0xbe, 0xf8, 0xed,
  0xf7, 0x0b, 0xfd, 0x06, 0x19, 0xea, 0xf1, 0xff, 0x0d, 0x14, 0xd0, 0xa8,
  0xfa, 0x0a, 0xca, 0xf5, 0xe8, 0x33, 0x0d, 0x03, 0x0a, 0xcd, 0xea, 0xff,
  0xd3, 0xe4, 0x06, 0xfa, 0xe0, 0xe5, 0x04, 0xd9, 0xfc, 0x0d, 0x01, 0x0f,
  0x13, 0xf7, 0xe5, 0x08, 0xc7, 0x21, 0x2a, 0xeb, 0x0f, 0xfd, 0x05, 0xed,
  0xaa, 0xcb, 0x0e, 0x0a, 0xc6, 0x21, 0xef, 0x06, 0x1c, 0x0b, 0x0f, 0xf1,
  0x01, 0xf0, 0xe6, 0x05, 0x35, 0x21, 0xfd, 0xad, 0x3f, 0x0f, 0xcf, 0xda,
  0xb5, 0x1f, 0x1b, 0xef, 0x0c, 0xf1, 0x0c, 0xfd, 0x81, 0xba, 0x1a, 0x14,
  0xad, 0x04, 0xfb, 0x02, 0x26, 0xe1, 0x14, 0xe9, 0x13, 0xf5, 0xfa, 0xf5,
  0x39, 0x28, 0x1c, 0xb5, 0x3f, 0x0d, 0xdf, 0xe1, 0xbf, 0xfc, 0x19, 0xe4,
  0x0e, 0xf7, 0x0d, 0xfd, 0x94, 0xd6, 0x12, 0x1c, 0xf4, 0x15, 0xfb, 0xfe,
  0x02, 0xe0, 0xfa, 0xe4, 0x15, 0xed, 0x06, 0xce, 0x2c, 0x18, 0x11, 0xa2,
  0x27, 0xf7, 0xed, 0xfd, 0x00, 0x06, 0x05, 0xfb, 0xf5, 0x02, 0xc7, 0xfc,
  0x03, 0xfc, 0xf7, 0xfb, 0x03, 0x06, 0x07, 0x04, 0xfe, 0xfa, 0xfe, 0xfd,
  0x00, 0xfa, 0x02, 0xfd, 0x00, 0xfc, 0xb8, 0xfe, 0xf5, 0x01, 0xfc, 0xfa,
  0x05, 0xf2, 0x05, 0x0d, 0xea, 0x01, 0xb3, 0x0f, 0xf3, 0xfe, 0xe1, 0x08,
  0xf8, 0x04, 0xf9, 0xf6, 0xff, 0xfe, 0x05, 0xfc, 0xfa, 0x03, 0x0a, 0xfa,
  0xfd, 0x04, 0xc2, 0x00, 0xf8, 0x03, 0x00, 0x05, 0xf9, 0x04, 0x04, 0xfb,
  0xf9, 0xff, 0xc1, 0xf8, 0xf5, 0x02, 0xe6, 0xf8, 0x08, 0x04, 0x07, 0x02,
  0x01, 0xfa, 0xfd, 0xfd, 0xfe, 0x01, 0xfc, 0x03, 0x00, 0xf7, 0x81, 0x03,
  0xf4, 0xf9, 0x00, 0x03, 0x09, 0x0b, 0x06, 0x0c, 0x8e, 0xf0, 0x03, 0x09,
  0x05, 0x07, 0xfd, 0xf8, 0x07, 0xc4, 0xfd, 0x01, 0xf8, 0x12, 0x04, 0xfc,
  0xfd, 0x00, 0xf8, 0xf0, 0x81, 0x01, 0xfa, 0xee, 0x07, 0xf0, 0xd8, 0xf0,
  0xfe, 0x0c, 0x00, 0xfe, 0xa7, 0x10, 0x01, 0x0e, 0xdd, 0x08, 0x05, 0xf5,
  0xf6, 0xe3, 0xfb, 0x0a, 0x09, 0x07, 0x05, 0xfe, 0x0b, 0x0b, 0xff, 0xeb,
  0x87, 0xe3, 0x02, 0xe9, 0x03, 0xf9, 0xde, 0xfd, 0xfe, 0x18, 0x09, 0xf5,
  0x96, 0xee, 0xfb, 0x11, 0xf2, 0x04, 0xf9, 0xe1, 0x09, 0xce, 0xf9, 0x05,
  0x23, 0xf3, 0xf2, 0xf8, 0xfe, 0x0b, 0x06, 0xf3, 0x90, 0xd7, 0x03, 0xed,
  0xfe, 0x00, 0xec, 0xfd, 0xd5, 0x0a, 0x01, 0x04, 0x08, 0x08, 0xfa, 0xfd,
  0xfe, 0x03, 0xfe, 0xfd, 0xfe, 0xff, 0x8a, 0xfe, 0x00, 0x03, 0x03, 0xfa,
  0x08, 0x01, 0xea, 0xfd, 0xfe, 0xf7, 0xfb, 0x00, 0x06, 0xf3, 0x09, 0x0b,
  0xe0, 0x06, 0x02, 0x03, 0xfa, 0x05, 0x00, 0xfd, 0x01, 0x02, 0xfe, 0xff,
  0x02, 0xfe, 0x84, 0x05, 0xfd, 0x04, 0x09, 0x01, 0x07, 0xfe, 0xec, 0x01,
  0x01, 0xf0, 0xfb, 0x00, 0xf9, 0xf0, 0x17, 0x02, 0xe5, 0x0a, 0x0b, 0x03,
  0xfd, 0x05, 0x01, 0xfc, 0xf8, 0xfe, 0x07, 0x00, 0x05, 0xfb, 0x81, 0xf6,
  0xfa, 0x01, 0x05, 0x03, 0x04, 0xfc, 0xe5, 0xf7, 0x03, 0xfa, 0xfe, 0xfe,
  0xf7, 0xf1, 0x14, 0x04, 0x07, 0xeb, 0xec, 0x94, 0x29, 0x00, 0x25, 0xd7,
  0xcb, 0xf9, 0x19, 0xe2, 0x25, 0x18, 0xdd, 0x0a, 0x01, 0x16, 0xec, 0xe0,
  0x24, 0x0e, 0xdd, 0x33, 0x1b, 0x10, 0xf5, 0xce, 0x06, 0xa0, 0xb4, 0xbc,
  0x08, 0xec, 0x00, 0x81, 0xf1, 0x21, 0x0b, 0xdc, 0xbf, 0xc2, 0x01, 0xe9,
  0xc1, 0x22, 0xdb, 0x08, 0xfe, 0x1e, 0xe0, 0xeb, 0x1b, 0x15, 0xf4, 0x05,
  0x1d, 0x14, 0xf9, 0xdd, 0x10, 0xbf, 0xb2, 0xa0, 0x22, 0x09, 0xf9, 0x85,
  0xe2, 0x17, 0x23, 0xe0, 0xe5, 0x9b, 0x0d, 0xf8, 0xf5, 0x14, 0xef, 0xe8,
  0x05, 0x00, 0xef, 0xe2, 0x38, 0x1f, 0xf3, 0xee, 0x53, 0x20, 0xfb, 0xdd,
  0x11, 0xb5, 0xa7, 0xc4, 0xec, 0x47, 0x07, 0x9e, 0xf7, 0xcd, 0xe5, 0xc3,
  0x04, 0xef, 0xe7, 0xab, 0x0f, 0x0a, 0xfd, 0xd6, 0x0f, 0x0e, 0x0e, 0xf4,
  0xa3, 0x26, 0x81, 0x1d, 0x08, 0x02, 0x12, 0x06, 0x06, 0x34, 0xd4, 0xff,
  0x30, 0x2d, 0x0b, 0x90, 0x0f, 0xf8, 0x1e, 0xd2, 0x21, 0xfb, 0x07, 0xa6,
  0x24, 0x0e, 0x0f, 0xfc, 0xf7, 0x0b, 0xe9, 0xf6, 0xaa, 0x0a, 0xab, 0xe4,
  0xd4, 0x01, 0x05, 0x2f, 0x10, 0x01, 0xe3, 0xf6, 0x22, 0xd0, 0x03, 0xae,
  0xae, 0x29, 0x21, 0xe5, 0x1a, 0x02, 0x1d, 0x98, 0x16, 0xcb, 0xf8, 0xd6,
  0x06, 0xeb, 0xdf, 0xfa, 0xfb, 0x05, 0x0d, 0x1b, 0xa5, 0x41, 0x07, 0x20,
  0x32, 0x15, 0xe1, 0xfa, 0xee, 0xb9, 0xdd, 0xff, 0x10, 0xf3, 0xfe, 0xeb,
  0xf4, 0xe8, 0x0b, 0x0e, 0x0e, 0x90, 0x15, 0x12, 0xf5, 0x07, 0x01, 0xf9,
  0x02, 0xf4, 0xf6, 0xf1, 0x18, 0xee, 0x09, 0xfe, 0xea, 0xe7, 0x17, 0xf1,
  0xf6, 0xb4, 0xd5, 0x09, 0xf5, 0xf8, 0x09, 0x01, 0x0a, 0xf9, 0xf7, 0x0a,
  0xee, 0x81, 0x04, 0xf8, 0xed, 0x05, 0x0e, 0x11, 0xf8, 0xfd, 0xf4, 0x09,
  0x07, 0xf2, 0x00, 0x07, 0xf3, 0xfe, 0xf0, 0xfb, 0x13, 0xda, 0xde, 0x13,
  0x0c, 0xf8, 0x07, 0x05, 0xf2, 0xf9, 0x0b, 0x01, 0xe0, 0x90, 0x1a, 0xf8,
  0xed, 0x08, 0x14, 0x0c, 0xf5, 0x08, 0xe7, 0x01, 0xf4, 0xf1, 0x06, 0x10,
  0xeb, 0x13, 0xdc, 0xfa, 0x3a, 0x28, 0xf9, 0xe8, 0xed, 0x14, 0x16, 0xfb,
  0x6a, 0xe8, 0x05, 0xc9, 0x64, 0xec, 0x23, 0x06, 0xc5, 0x00, 0xf4, 0x14,
  0x99, 0x27, 0xca, 0x00, 0xca, 0x13, 0x3a, 0xe9, 0xee, 0x17, 0x01, 0x09,
  0x65, 0x11, 0xfa, 0xe4, 0xe4, 0x13, 0x0f, 0x09, 0xd5, 0xec, 0xe3, 0xe8,
  0x10, 0xdc, 0x0a, 0x12, 0xfc, 0x03, 0xf5, 0x0c, 0x8a, 0x27, 0xf7, 0x22,
  0xc5, 0x2a, 0x1c, 0xe8, 0xe9, 0x1a, 0xed, 0xfa, 0xa7, 0xdc, 0x03, 0xe6,
  0x8c, 0x0f, 0xff, 0x0c, 0x3f, 0xf1, 0xe0, 0xd2, 0x42, 0xb5, 0xfa, 0xee,
  0xf4, 0xe6, 0xe7, 0xf9, 0x81, 0xe3, 0xf1, 0x02, 0x95, 0x44, 0x11, 0xec,
  0xf4, 0xfa, 0xed, 0xdd, 0x4e, 0x01, 0x0e, 0x0b, 0xf1, 0x09, 0x04, 0x1c,
  0x07, 0x01, 0x17, 0x01, 0x3d, 0xd3, 0xfe, 0x08, 0xed, 0x07, 0x8f, 0x12,
  0xef, 0xfe, 0xe2, 0x1c, 0x20, 0xf2, 0x0f, 0xe8, 0xf5, 0xf6, 0xf5, 0xdd,
  0xd8, 0xf9, 0xfd, 0xfe, 0x08, 0xe7, 0x08, 0x21, 0xff, 0xea, 0x11, 0x04,
  0xfa, 0xcc, 0xed, 0x10, 0xeb, 0xf4, 0x81, 0xff, 0xed, 0xed, 0xd6, 0x1e,
  0x04, 0xf0, 0x04, 0xdc, 0xee, 0xec, 0xd5, 0xe2, 0x54, 0xe6, 0xf9, 0x02,
  0xe0, 0xee, 0x00, 0x25, 0xfc, 0xff, 0x08, 0x04, 0x12, 0xd0, 0xe5, 0x0b,
  0xef, 0xf2, 0xa6, 0x19, 0x0a, 0x11, 0xd7, 0x1f, 0xe9, 0xff, 0x05, 0xe3,
  0xe6, 0xf6, 0xd8, 0xd4, 0xff, 0xfc, 0x02, 0x05, 0xfb, 0xfc, 0x06, 0x06,
  0xfd, 0xf8, 0x07, 0x02, 0x02, 0x00, 0xff, 0x07, 0xff, 0x01, 0x05, 0x98,
  0x02, 0x01, 0x00, 0xff, 0x00, 0x00, 0xd4, 0x07, 0x0b, 0x00, 0xf3, 0x0f,
  0x03, 0x04, 0x07, 0xfc, 0xfd, 0x08, 0x03, 0xf1, 0xf4, 0xfd, 0x03, 0xfd,
  0xfb, 0xff, 0xfc, 0xf7, 0xfe, 0xfd, 0x06, 0xa4, 0xf9, 0xf5, 0x04, 0x02,
  0xfc, 0xf5, 0xc7, 0x04, 0xf0, 0xf9, 0x0b, 0xf6, 0xff, 0xfb, 0xfa, 0x00,
  0xfa, 0xfe, 0x03, 0x07, 0xf4, 0xf7, 0x01, 0x01, 0xfc, 0x02, 0x02, 0x00,
  0xfd, 0x04, 0xf7, 0x81, 0x02, 0x05, 0x01, 0x05, 0xfd, 0x01, 0xc4, 0x03,
  0x04, 0x08, 0xfc, 0x0f, 0x16, 0xf2, 0xe7, 0x0c, 0xdd, 0x12, 0x0c, 0x0c,
  0x06, 0xf4, 0x01, 0x02, 0x02, 0x09, 0xe8, 0x30, 0xf3, 0x10, 0xfc, 0x06,
  0x0d, 0x23, 0xf7, 0x02, 0xeb, 0x98, 0xfd, 0x01, 0x0c, 0xea, 0x82, 0xdd,
  0x01, 0xf1, 0xf0, 0x0a, 0xda, 0x1c, 0x0b, 0x1a, 0xf4, 0xe5, 0x0e, 0xff,
  0xfb, 0x0c, 0xe5, 0x27, 0x0e, 0x04, 0x02, 0xf6, 0x06, 0x25, 0xed, 0xfe,
  0x07, 0xa1, 0x01, 0x02, 0x10, 0xe6, 0x81, 0xf0, 0x12, 0xea, 0xdf, 0x0a,
  0xf0, 0x15, 0xfb, 0x19, 0xfd, 0xf0, 0x00, 0x11, 0x07, 0xfb, 0xe1, 0x2b,
  0x1d, 0xf0, 0xf4, 0xec, 0x03, 0x1b, 0xf3, 0x0c, 0xf6, 0x8e, 0x04, 0x08,
  0x0d, 0xf3, 0x8a, 0x00, 0xc1, 0xf7, 0xfa, 0x0f, 0x2b, 0x11, 0x2d, 0xfc,
  0x1e, 0xfc, 0x3e, 0x20, 0x25, 0xd7, 0x0e, 0x12, 0xfa, 0xd6, 0x10, 0x07,
  0xde, 0xf3, 0xcc, 0x4c, 0x0e, 0x20, 0xfc, 0xd8, 0x05, 0x2e, 0xf2, 0xf2,
  0x4a, 0x01, 0xe8, 0x03, 0x0b, 0xe6, 0x38, 0x02, 0x1a, 0xec, 0x11, 0x00,
  0x15, 0xc5, 0x02, 0x0d, 0xc2, 0xd2, 0x12, 0x08, 0xee, 0xfe, 0xbe, 0xd3,
  0xe6, 0xd9, 0x0c, 0xe6, 0xfe, 0x15, 0xf7, 0xdb, 0xc1, 0x00, 0xfb, 0xf7,
  0x7f, 0xe5, 0xd9, 0xfe, 0xbf, 0xf2, 0xd1, 0xe9, 0xc2, 0xca, 0xf9, 0x12,
  0xed, 0x9e, 0xfd, 0x07, 0xfc, 0xc5, 0xe9, 0xdd, 0xd0, 0xa3, 0x17, 0x49,
  0x05, 0x04, 0xdf, 0xc7, 0x05, 0x08, 0x0a, 0xcf, 0xf5, 0xf0, 0x02, 0xf5,
  0x15, 0x02, 0xfb, 0xf6, 0xc9, 0xfd, 0xfa, 0xea, 0xf5, 0xf6, 0x0c, 0xfb,
  0x8d, 0x01, 0xf1, 0xfb, 0xc6, 0x00, 0x08, 0x07, 0xbb, 0x05, 0xfb, 0xfc,
  0x2b, 0xe8, 0x14, 0xd6, 0xfa, 0x07, 0xfc, 0xfb, 0xe7, 0x06, 0x0d, 0xee,
  0xfc, 0x01, 0xfc, 0xfc, 0x0f, 0xf1, 0x05, 0xfa, 0x81, 0xfb, 0x04, 0x07,
  0xc2, 0x18, 0x13, 0xfe, 0xd0, 0x01, 0xfd, 0xf9, 0xf7, 0xc8, 0x07, 0xed,
  0xc8, 0x0b, 0x03, 0xfe, 0x16, 0x02, 0x12, 0xf0, 0x0f, 0x03, 0xf8, 0xf7,
  0x16, 0x08, 0x00, 0xf7, 0x8d, 0xfd, 0x0c, 0x00, 0xce, 0x2e, 0x06, 0xfc,
  0xd9, 0x06, 0xfe, 0xf6, 0x00, 0x0c, 0xff, 0x07, 0xf2, 0xfa, 0xef, 0x11,
  0xee, 0xe3, 0xec, 0xe8, 0xdb, 0xfc, 0xf7, 0xf5, 0xf9, 0x94, 0x00, 0x0c,
  0xff, 0xf6, 0x11, 0x01, 0x10, 0x01, 0x0a, 0x07, 0xf6, 0x14, 0xfc, 0xfe,
  0xfd, 0xf9, 0x14, 0x10, 0x07, 0xfe, 0xf2, 0x10, 0xf0, 0xe8, 0xfa, 0xdf,
  0xe3, 0xf6, 0xf9, 0xf6, 0x12, 0x81, 0xf3, 0xfd, 0xf0, 0xf1, 0x04, 0xfe,
  0x11, 0xee, 0x08, 0x07, 0xf7, 0x0c, 0x05, 0xfb, 0xfe, 0xf7, 0x03, 0x19,
  0xf5, 0x01, 0xf3, 0x0b, 0xf5, 0xf7, 0x02, 0xd4, 0x12, 0xfc, 0xf7, 0xf4,
  0xfd, 0x8b, 0xea, 0xfd, 0xf1, 0xe4, 0xf7, 0xf2, 0x08, 0xe6, 0x00, 0x07,
  0xf4, 0x0d, 0x0b, 0x08, 0xf8, 0x04, 0x0e, 0x21, 0xd5, 0x02, 0xf2, 0x15,
  0xed, 0xcb, 0x0e, 0x0d, 0xe4, 0xf3, 0xf9, 0x17, 0xd1, 0xa7, 0x08, 0x0e,
  0x24, 0xf6, 0xff, 0x03, 0x0b, 0x02, 0xfd, 0x10, 0x26, 0x14, 0xe4, 0xee,
  0xfc, 0x12, 0x13, 0x08, 0xb1, 0xff, 0x0c, 0x1f, 0xce, 0xd5, 0x2b, 0x07,
  0xe7, 0xe8, 0xfa, 0x08, 0xbf, 0x81, 0x0c, 0x01, 0x1f, 0xea, 0xff, 0xf2,
  0x0a, 0x10, 0x19, 0x0f, 0x2f, 0x2b, 0xe4, 0xfd, 0xe6, 0x04, 0xf7, 0x02,
  0xf4, 0x00, 0xee, 0x15, 0xcd, 0xcc, 0x1f, 0x07, 0x11, 0xf3, 0x02, 0x08,
  0xa9, 0x89, 0x0c, 0x02, 0x10, 0x04, 0x0c, 0xf1, 0x0f, 0x10, 0x0f, 0xff,
  0x2f, 0x0d, 0xcb, 0xeb, 0x22, 0x12, 0xfd, 0xfd, 0x25, 0xfd, 0xfd, 0xed,
  0x15, 0xfd, 0xff, 0x0a, 0x24, 0x97, 0x07, 0xf9, 0xe9, 0xfb, 0xfe, 0xfa,
  0xaf, 0xfe, 0x1e, 0xea, 0xf5, 0x05, 0x09, 0xf8, 0xfd, 0xfa, 0x10, 0x06,
  0x00, 0xf7, 0xf9, 0x01, 0xf9, 0xfb, 0x07, 0xf5, 0x08, 0x12, 0xf0, 0x0a,
  0xec, 0x81, 0xf6, 0xfd, 0xfe, 0xfa, 0xf8, 0x04, 0xb3, 0xf6, 0x0f, 0xe5,
  0xfc, 0x0d, 0x00, 0x0f, 0xfa, 0x03, 0xfe, 0xfa, 0xf6, 0xf8, 0x02, 0x0a,
  0xdd, 0x01, 0xfb, 0xf7, 0xf5, 0x07, 0xfe, 0x16, 0xee, 0x8b, 0x07, 0xf8,
  0x07, 0xf7, 0x01, 0x03, 0xbd, 0xed, 0x19, 0xd9, 0x0c, 0x0f, 0xfe, 0x05,
  0xfa, 0x05, 0x08, 0xf3, 0xbc, 0xad, 0x1c, 0x30, 0x1c, 0xff, 0xf3, 0xa3,
  0x2d, 0x13, 0xed, 0x12, 0x3f, 0xba, 0xff, 0x88, 0xee, 0x07, 0x0e, 0xfd,
  0x13, 0xfc, 0xe5, 0x53, 0x9b, 0x2b, 0xc3, 0x2f, 0xfb, 0x0c, 0x0d, 0xed,
  0x22, 0xb9, 0x1a, 0x24, 0x07, 0x07, 0xf6, 0xc2, 0xe2, 0x07, 0x32, 0xfb,
  0x14, 0xb9, 0xf9, 0x87, 0xb5, 0x23, 0xe6, 0xef, 0x0a, 0xd5, 0xed, 0x5a,
  0xce, 0x18, 0xf2, 0x25, 0x12, 0x09, 0xe3, 0xf5, 0x91, 0xd0, 0x34, 0x1c,
  0x34, 0x21, 0x0b, 0xad, 0x6e, 0x1d, 0x54, 0x00, 0xa3, 0xc6, 0x35, 0x9f,
  0x81, 0x25, 0xbd, 0xe6, 0x1c, 0xc7, 0xf3, 0x0e, 0xc0, 0xfd, 0xfd, 0x42,
  0x20, 0x20, 0x12, 0xe6, 0x19, 0xee, 0xe1, 0xe9, 0x67, 0xb3, 0xe8, 0xb2,
  0x0d, 0x18, 0x8d, 0xe0, 0xe1, 0x1e, 0xce, 0xc7, 0x16, 0xa8, 0x2b, 0x32,
  0xe5, 0x23, 0xb1, 0xf5, 0xff, 0xfa, 0x11, 0x64, 0x02, 0x10, 0xfa, 0x13,
  0xbe, 0xd8, 0xd9, 0x05, 0xf2, 0xc5, 0xc8, 0x9e, 0x0b, 0x12, 0x81, 0xe0,
  0xd2, 0xe9, 0xcf, 0xd2, 0x3f, 0x94, 0x3d, 0x0e, 0xdf, 0xd5, 0xc9, 0xfd,
  0xfe, 0xf9, 0x37, 0x0c, 0x1f, 0x1d, 0xfd, 0x0b, 0x26, 0xdf, 0xd5, 0x12,
  0x1f, 0x00, 0x05, 0xcd, 0x4f, 0xfc, 0x9f, 0xd3, 0x45, 0x0a, 0xee, 0xd9,
  0x28, 0xd0, 0x13, 0x30, 0xd3, 0xdb, 0xbf, 0x30, 0xd5, 0x28, 0x0d, 0x2c,
  0x28, 0x2d, 0xf8, 0xf4, 0xf0, 0xdc, 0x0a, 0xfd, 0x02, 0xcf, 0xfb, 0x18,
  0x02, 0xf6, 0x02, 0xfb, 0x05, 0xee, 0x0b, 0xe1, 0x05, 0x0c, 0x94, 0x07,
  0xfa, 0x0e, 0xf3, 0xfe, 0xf0, 0x05, 0x04, 0x03, 0x09, 0x0c, 0xec, 0xfb,
  0xf3, 0xd9, 0x07, 0x09, 0xf3, 0xcc, 0x03, 0x11, 0xf2, 0xff, 0xff, 0xfe,
  0xf4, 0xf5, 0x13, 0xe9, 0x05, 0xfb, 0x81, 0xff, 0x00, 0x0d, 0x02, 0xfd,
  0xfb, 0x01, 0x01, 0x01, 0x04, 0x0d, 0xee, 0xf2, 0xf8, 0xe3, 0x0a, 0xff,
  0xf5, 0xc5, 0x01, 0x0b, 0xfb, 0x01, 0xfc, 0x02, 0xf5, 0xfe, 0x0c, 0xe7,
  0xff, 0x05, 0x94, 0xff, 0x09, 0x0e, 0x0e, 0xf6, 0x03, 0xfd, 0x00, 0x01,
  0x06, 0x08, 0xf7, 0x02, 0x06, 0x01, 0x9c, 0x9e, 0xe0, 0xf5, 0x06, 0x03,
  0xec, 0xfa, 0x26, 0x0e, 0xe9, 0xf0, 0xfc, 0x05, 0xb5, 0x17, 0xfc, 0x07,
  0xf8, 0x10, 0xef, 0xdf, 0x04, 0xfe, 0x11, 0xff, 0xf4, 0xf9, 0xd5, 0xd3,
  0xf7, 0x19, 0x81, 0xa2, 0xf1, 0x04, 0x02, 0x0a, 0x04, 0xe8, 0x22, 0x11,
  0xc5, 0xf3, 0x09, 0x06, 0xcc, 0x20, 0xea, 0x18, 0x13, 0x0f, 0xf2, 0xe0,
  0xfd, 0xf4, 0xf9, 0xfb, 0xfb, 0xe6, 0xd7, 0xc1, 0x02, 0x14, 0x87, 0xaf,
  0x30, 0x11, 0x0b, 0x09, 0x06, 0xf4, 0x16, 0x02, 0x1c, 0xdd, 0x15, 0x07,
  0xd1, 0x0a, 0xe4, 0x09, 0x06, 0x0c, 0xf3, 0xf8, 0xf3, 0xec, 0x13, 0x08,
  0xfc, 0xd2, 0xd4, 0xc3, 0xf4, 0x04, 0x31, 0xfa, 0x07, 0x10, 0xe4, 0x06,
  0x07, 0xc5, 0x2e, 0x3c, 0x15, 0x13, 0xfb, 0xef, 0xd3, 0x11, 0xae, 0xea,
  0xa2, 0xdf, 0x18, 0xf5, 0xf1, 0xa4, 0x18, 0xc1, 0xff, 0xf5, 0xf9, 0xf3,
  0xe0, 0x08, 0x0f, 0x09, 0xf4, 0xf7, 0xea, 0x11, 0x03, 0xee, 0xf9, 0x24,
  0xfb, 0x23, 0xf3, 0xff, 0xd8, 0x05, 0xc3, 0x0b, 0x90, 0xd3, 0xfe, 0xda,
  0xf3, 0x85, 0xfa, 0xdc, 0x0b, 0xe5, 0x10, 0xf9, 0xd7, 0xfd, 0x13, 0x15,
  0xef, 0xf1, 0xfc, 0x0b, 0xff, 0xfd, 0xf9, 0x18, 0xfd, 0x14, 0xf7, 0xfc,
  0xd8, 0x42, 0xd9, 0x19, 0x81, 0xcb, 0xf3, 0xcd, 0x01, 0x95, 0xee, 0xdb,
  0x13, 0xdf, 0x0a, 0xfc, 0xf1, 0x18, 0x06, 0xfe, 0x0f, 0x0a, 0x03, 0x00,
  0xa0, 0xfc, 0xfa, 0xf9, 0xd5, 0x07, 0x1a, 0xf8, 0x0a, 0x0c, 0x0d, 0x10,
  0x04, 0x05, 0xf6, 0x04, 0xe4, 0x12, 0x03, 0xf5, 0x1c, 0x1c, 0x0e, 0x00,
  0xe8, 0x04, 0x0c, 0xfe, 0xfb, 0x17, 0xfc, 0x03, 0x81, 0x06, 0xff, 0x03,
  0xce, 0xfc, 0x0a, 0xf9, 0xfc, 0xf5, 0x05, 0x01, 0x0a, 0xfc, 0x04, 0x06,
  0xf3, 0xf8, 0x07, 0xf7, 0x17, 0xff, 0x07, 0xf8, 0xf7, 0x0b, 0x09, 0xf5,
  0xff, 0x0b, 0xfb, 0x06, 0x8d, 0xfb, 0xf8, 0x08, 0x09, 0x11, 0x0f, 0xfb,
  0x01, 0xee, 0xfa, 0xf4, 0x05, 0xf8, 0x0d, 0xe9, 0xf7, 0xfd, 0x08, 0xf2,
  0x0a, 0x04, 0x0b, 0xf3, 0x5d, 0xbc, 0x18, 0x03, 0x21, 0x41, 0x07, 0xb1,
  0xfd, 0x1e, 0x03, 0x25, 0x53, 0xfc, 0xf1, 0xf7, 0xde, 0x13, 0xf5, 0xdb,
  0x23, 0x51, 0x0e, 0x06, 0x15, 0xbd, 0x00, 0x14, 0x19, 0x97, 0xbd, 0xc0,
  0xcb, 0x81, 0x02, 0xfa, 0x36, 0x21, 0xec, 0xa5, 0xfb, 0x22, 0xed, 0x18,
  0xaf, 0xe5, 0xcb, 0xfc, 0xe6, 0x00, 0xbc, 0xc3, 0x28, 0x12, 0xed, 0x0a,
  0x10, 0xdc, 0x04, 0x13, 0x12, 0x89, 0x90, 0xc3, 0xa4, 0xcc, 0x02, 0xff,
  0x36, 0x28, 0x0f, 0xb6, 0x3e, 0x3b, 0xe3, 0x23, 0x2b, 0xf6, 0xc7, 0xf6,
  0xef, 0x0a, 0xd3, 0xa3, 0x1d, 0x3e, 0xe6, 0x19, 0xf6, 0x20, 0x01, 0x02,
  0x1c, 0xcf, 0xa9, 0xb1, 0x25, 0xb5, 0xe8, 0x2f, 0x00, 0x04, 0xdf, 0x35,
  0x8a, 0xfa, 0x00, 0x02, 0xc2, 0x17, 0xda, 0x03, 0x44, 0x3b, 0xeb, 0x23,
  0x2e, 0x2d, 0xc3, 0x14, 0x07, 0xf0, 0x0d, 0xe5, 0xf1, 0xfc, 0x03, 0x13,
  0x30, 0xb8, 0xdf, 0x24, 0xf1, 0x04, 0xf4, 0x31, 0x81, 0x09, 0x07, 0x01,
  0xcc, 0x07, 0x1b, 0x0f, 0x0f, 0x2d, 0xda, 0x1d, 0x18, 0x25, 0xc8, 0x04,
  0x1f, 0xf6, 0x0c, 0xf5, 0xf8, 0xef, 0xe1, 0xff, 0x24, 0xc8, 0xb0, 0x43,
  0x06, 0xf8, 0xf6, 0x39, 0x9e, 0x0d, 0x1d, 0x17, 0xd7, 0xff, 0xe5, 0x0b,
  0x55, 0x1f, 0xe5, 0x22, 0x1e, 0x18, 0xbd, 0xd7, 0x17, 0xe8, 0x14, 0xeb,
  0xfa, 0xdd, 0x01, 0xf9, 0x2b, 0x08, 0x6a, 0x22, 0xb6, 0x15, 0xf2, 0x03,
  0x15, 0x06, 0x9e, 0xc6, 0x19, 0x6f, 0x5a, 0x2b, 0x78, 0x02, 0x33, 0x4d,
  0xf9, 0x2d, 0xda, 0xff, 0x4a, 0x36, 0xee, 0xaa, 0x7f, 0x2a, 0xbe, 0xf5,
  0x12, 0x0a, 0x38, 0x07, 0xd0, 0x03, 0xf9, 0x20, 0xfd, 0xfa, 0x96, 0x00,
  0xd7, 0x3a, 0x22, 0x1f, 0x78, 0xc7, 0xd0, 0xc7, 0x32, 0x2f, 0xfe, 0x00,
  0xfd, 0x42, 0x22, 0xb0, 0x7c, 0x4c, 0xe8, 0xe4, 0x2e, 0xff, 0x38, 0xee,
  0xdc, 0x03, 0xd3, 0x02, 0x0c, 0x09, 0xb9, 0x0b, 0xf1, 0x1f, 0x0e, 0x4e,
  0x53, 0x9a, 0xc6, 0x17, 0x55, 0x10, 0x39, 0xf7, 0x1f, 0x39, 0x30, 0xca,
  0x7d, 0x2b, 0xc0, 0x16, 0xff, 0xf1, 0xfe, 0x0e, 0x06, 0x0d, 0x0a, 0xd9,
  0x02, 0xed, 0x12, 0xa5, 0xf6, 0x04, 0x03, 0xff, 0xf5, 0xfa, 0x24, 0xbe,
  0xed, 0xdc, 0xf7, 0x0c, 0x05, 0x0f, 0x04, 0x06, 0xfb, 0x05, 0xe4, 0xee,
  0xff, 0xed, 0xfe, 0x0d, 0xf6, 0xf6, 0x03, 0xe3, 0x03, 0x03, 0x03, 0x81,
  0xef, 0xff, 0xfb, 0x01, 0xf7, 0xfa, 0x13, 0xa9, 0xf8, 0xd4, 0x05, 0xff,
  0xfd, 0x0c, 0xfe, 0xfd, 0xf8, 0xf9, 0xf6, 0xfa, 0x0d, 0xf4, 0xf9, 0x07,
  0x0a, 0xee, 0xfe, 0xf9, 0xfd, 0x1f, 0x04, 0x91, 0xea, 0x08, 0xef, 0x03,
  0x0a, 0x02, 0x0c, 0xb2, 0x09, 0xdb, 0xfd, 0xfb, 0x03, 0x0d, 0x00, 0x17,
  0xf5, 0xf6, 0xfc, 0xfb, 0xfc, 0x00, 0xff, 0xff, 0x05, 0x04, 0x01, 0xf9,
  0xfe, 0xfe, 0x05, 0x06, 0xfe, 0xe9, 0x08, 0x07, 0xfd, 0x06, 0x03, 0xfe,
  0xfd, 0xfb, 0x06, 0x02, 0x0a, 0x03, 0x9a, 0x05, 0x01, 0x05, 0xf2, 0xf8,
  0x04, 0x00, 0xfc, 0x00, 0xfe, 0x06, 0xff, 0x10, 0xfc, 0xfe, 0xfd, 0xfb,
  0xf9, 0xec, 0xf9, 0xf8, 0xf4, 0x01, 0xf0, 0xfc, 0xfc, 0xfb, 0x01, 0xff,
  0xfa, 0x00, 0x97, 0x00, 0x08, 0xf7, 0x02, 0x06, 0xf9, 0xfa, 0x02, 0x02,
  0x03, 0xf5, 0xff, 0xf4, 0xfd, 0x03, 0x04, 0xf0, 0xfe, 0xf0, 0x05, 0xfe,
  0xf9, 0x04, 0x08, 0xfd, 0xf1, 0x05, 0x02, 0x01, 0x08, 0x05, 0x81, 0x04,
  0xf8, 0xff, 0xf4, 0x0f, 0x12, 0x07, 0xfd, 0xda, 0x4a, 0x54, 0xe5, 0x60,
  0x35, 0x3e, 0x21, 0xc2, 0xf9, 0x48, 0x16, 0x0c, 0xbb, 0xf4, 0xa3, 0x34,
  0x0b, 0xd8, 0x17, 0x8c, 0xec, 0x8b, 0xe3, 0xf2, 0xc6, 0x91, 0xfb, 0x02,
  0xe3, 0x39, 0xec, 0xfc, 0x13, 0x30, 0x08, 0x4b, 0x22, 0x4d, 0x12, 0xd9,
  0xf7, 0x4c, 0x24, 0x04, 0xd9, 0x29, 0xd4, 0x42, 0x3c, 0x15, 0xea, 0xd3,
  0xe8, 0xb1, 0xa2, 0xd6, 0xc9, 0xca, 0xe5, 0xeb, 0xcc, 0x36, 0xef, 0xdb,
  0x07, 0x3d, 0xe6, 0x33, 0x37, 0x1d, 0x16, 0xea, 0x1e, 0x48, 0x11, 0x0a,
  0x93, 0x24, 0xf1, 0x12, 0x28, 0x0f, 0xd3, 0xcb, 0xdc, 0x9b, 0x81, 0xd0,
  0xd0, 0xdb, 0xe5, 0xf3, 0x10, 0xf1, 0x0d, 0x07, 0xe8, 0x0f, 0xec, 0x06,
  0x0a, 0xfe, 0xda, 0xa6, 0x2e, 0x0c, 0xfb, 0x33, 0x26, 0x0b, 0xe6, 0xec,
  0xdb, 0xfa, 0xdd, 0x35, 0xd2, 0x32, 0xfa, 0x14, 0x0d, 0xfe, 0x0f, 0xf3,
  0xea, 0xf8, 0xfa, 0x08, 0xfe, 0xf8, 0x03, 0x0d, 0xee, 0xef, 0xcc, 0x97,
  0xf5, 0xfe, 0x09, 0x33, 0x14, 0xed, 0xeb, 0xe7, 0xf0, 0x10, 0xcb, 0xfa,
  0xc8, 0x13, 0xef, 0x06, 0x0d, 0xfb, 0x01, 0xe1, 0x24, 0xf9, 0xee, 0x01,
  0x09, 0x07, 0x18, 0x16, 0x29, 0xe7, 0xd5, 0x81, 0xd5, 0xf9, 0x07, 0x32,
  0xf8, 0x04, 0xda, 0xea, 0xe9, 0x0d, 0xc3, 0x2d, 0xd2, 0x12, 0xea, 0x0b,
  0x04, 0xeb, 0x00, 0xec, 0x0e, 0x20, 0x06, 0xb6, 0x1f, 0xf9, 0x11, 0x18,
  0x1d, 0xd6, 0xe2, 0x09, 0xf4, 0x1b, 0xea, 0x09, 0xf5, 0xc0, 0x0d, 0xdc,
  0xcd, 0x21, 0xf3, 0x02, 0x86, 0xe5, 0xf9, 0xfe, 0x0c, 0xfd, 0x01, 0xdf,
  0x1c, 0x15, 0xf7, 0xab, 0x05, 0x0d, 0xfc, 0x12, 0x19, 0xd1, 0x09, 0x07,
  0xf7, 0x0f, 0xec, 0xfc, 0x20, 0xa8, 0x18, 0xe4, 0xe5, 0x1e, 0x0a, 0x08,
  0x81, 0x21, 0x0e, 0x12, 0x0d, 0x14, 0xf5, 0xe0, 0xda, 0x05, 0xf5, 0xa7,
  0xf4, 0x0c, 0x1a, 0x32, 0x14, 0xdd, 0xfc, 0xf7, 0x14, 0x21, 0xe8, 0xea,
  0x12, 0xb9, 0x21, 0xf2, 0xf3, 0x09, 0x25, 0x23, 0x9a, 0x1a, 0x01, 0x0a,
  0x0c, 0x07, 0x08, 0xf0, 0xc2, 0xa0, 0x54, 0xe5, 0x3f, 0x99, 0xdb, 0x09,
  0x0d, 0xe2, 0xa1, 0xe1, 0x15, 0x1c, 0x01, 0x0a, 0x68, 0xa9, 0x0e, 0x0b,
  0x03, 0x45, 0xf8, 0x2c, 0x28, 0xc6, 0x0a, 0x1c, 0xec, 0xdb, 0xfa, 0xe4,
  0xc9, 0xac, 0x15, 0x04, 0xfa, 0x81, 0xbe, 0x19, 0xc1, 0xf6, 0xaf, 0x10,
  0x00, 0x0e, 0xfb, 0xf6, 0x10, 0xb5, 0x0a, 0x16, 0xee, 0x35, 0xbe, 0x1c,
  0x22, 0xe1, 0x03, 0x41, 0xe5, 0xe6, 0xda, 0xf4, 0xe7, 0xac, 0x43, 0x39,
  0xfa, 0xb1, 0x2b, 0x1f, 0xed, 0xe4, 0x08, 0xea, 0xc5, 0x1d, 0xfb, 0x01,
  0x5b, 0xe7, 0xf1, 0xf5, 0xd8, 0x28, 0xa7, 0x12, 0x10, 0xdf, 0xdb, 0xec,
  0x1f, 0xda, 0xff, 0xeb, 0x1b, 0xf5, 0x0c, 0xff, 0x05, 0xff, 0x04, 0x01,
  0xf4, 0x01, 0x00, 0x07, 0xdf, 0x27, 0xfd, 0x81, 0xd7, 0x0a, 0xfc, 0x07,
  0xdc, 0xaf, 0xb8, 0xbd, 0xee, 0xfa, 0xfa, 0x02, 0xfc, 0xf5, 0x05, 0xf8,
  0x14, 0x07, 0xeb, 0xf6, 0x0b, 0x0d, 0xf4, 0xfc, 0xf8, 0xf9, 0xfa, 0x0a,
  0x16, 0xf8, 0x08, 0x8e, 0xd6, 0x0d, 0xf4, 0x02, 0xd5, 0xa1, 0xad, 0xab,
  0xe3, 0xed, 0x0c, 0xff, 0x01, 0xf6, 0x04, 0x09, 0x09, 0x02, 0xed, 0x10,
  0x0e, 0xff, 0x0b, 0xfd, 0xfd, 0xfc, 0xfb, 0x07, 0xd4, 0x25, 0x09, 0x88,
  0xea, 0x0c, 0xf4, 0xfe, 0xea, 0x98, 0xb3, 0xc6, 0xe4, 0xeb, 0xfb, 0x0e,
  0x08, 0xfd, 0x09, 0x01, 0xcf, 0xf2, 0xe8, 0x0f, 0x41, 0x08, 0xf4, 0x0d,
  0x08, 0x16, 0x00, 0x04, 0x24, 0xf6, 0xdf, 0xf3, 0xe3, 0xf9, 0xd6, 0xe5,
  0x02, 0x07, 0xec, 0xbb, 0xfe, 0x01, 0xfc, 0x29, 0xf6, 0xea, 0x08, 0xec,
  0x08, 0xe9, 0xe7, 0x07, 0xf7, 0x01, 0x23, 0x0d, 0x81, 0x29, 0x27, 0xec,
  0x2d, 0xfe, 0xdf, 0xf1, 0xe7, 0xec, 0xd4, 0xfd, 0xe7, 0xf1, 0xeb, 0xbe,
  0x0a, 0x0e, 0xfd, 0x2d, 0xf1, 0xea, 0xf5, 0xe2, 0xc5, 0xf2, 0xe9, 0xf9,
  0x61, 0x02, 0x17, 0x0c, 0xf3, 0x19, 0x0c, 0xf3, 0x01, 0xfb, 0xe5, 0xeb,
  0xe4, 0x03, 0xe4, 0x08, 0xe0, 0xf3, 0xe3, 0xb9, 0xf6, 0x0d, 0xfe, 0x12,
  0xf4, 0xf1, 0xef, 0xbd, 0x2e, 0x28, 0xee, 0x1a, 0x0d, 0x22, 0x08, 0xfa,
  0x2a, 0xed, 0xb6, 0x2b, 0x33, 0x05, 0xe1, 0x10, 0xb6, 0xf4, 0xf3, 0x00,
  0xe0, 0x16, 0x07, 0x10, 0x2a, 0xa1, 0xd5, 0xc8, 0x1c, 0x11, 0xf6, 0xf7,
  0x2e, 0x13, 0xff, 0x1c, 0x0a, 0x25, 0x0e, 0x09, 0x2d, 0xf1, 0x87, 0x2f,
  0xe6, 0x1c, 0xeb, 0xfe, 0xe4, 0xf6, 0xfe, 0x1a, 0xd6, 0x18, 0xfe, 0x12,
  0x17, 0xc1, 0xb4, 0xc6, 0x04, 0x0d, 0x03, 0xfa, 0xd9, 0x06, 0x02, 0x36,
  0x08, 0x05, 0xfe, 0x1c, 0xd1, 0xf2, 0x81, 0x22, 0x52, 0xe4, 0xe1, 0xf1,
  0xe7, 0xd7, 0xfd, 0x2a, 0xd6, 0x01, 0xf6, 0xf1, 0xe1, 0xc4, 0xa7, 0xd3,
  0x05, 0xff, 0x03, 0xf2, 0xa6, 0xf2, 0xfa, 0x09, 0xe7, 0x1f, 0x13, 0x4a,
  0x81, 0x09, 0x38, 0x11, 0xcf, 0x0f, 0x08, 0x0d, 0xb1, 0x33, 0x13, 0xc1,
  0x2d, 0xbe, 0xf9, 0x0a, 0xfc, 0xca, 0xf1, 0x1c, 0x5d, 0x03, 0xf2, 0x1e,
  0xad, 0xf6, 0xe0, 0xc3, 0x11, 0x2b, 0xfc, 0x27, 0xb3, 0xf0, 0x1e, 0x15,
  0x3b, 0xfe, 0x23, 0x18, 0xf0, 0x20, 0x2f, 0xaf, 0xee, 0xd0, 0x17, 0xe7,
  0xf1, 0xca, 0xea, 0xfa, 0x4d, 0xe1, 0xec, 0x38, 0xba, 0xee, 0xd9, 0x32,
  0xf0, 0x0f, 0xf5, 0x30, 0x97, 0x03, 0xf8, 0x15, 0xbd, 0x05, 0xb0, 0x28,
  0xf7, 0x3a, 0x2f, 0xa3, 0x39, 0xa3, 0x08, 0xca, 0x19, 0xe1, 0xef, 0x05,
  0x69, 0xdd, 0xcf, 0x0f, 0x38, 0x22, 0xfe, 0xf2, 0x18, 0x3e, 0xdc, 0x31,
  0x06, 0xdb, 0xe0, 0x2b, 0x2c, 0xfd, 0x39, 0xff, 0x1a, 0x1d, 0x39, 0xd7,
  0x03, 0xf4, 0x87, 0x01, 0x06, 0x02, 0xdd, 0xff, 0x3c, 0x17, 0xcc, 0xbb,
  0xd9, 0xea, 0x1c, 0xb3, 0x07, 0xfc, 0xbf, 0x1e, 0x21, 0xd4, 0xbd, 0xff,
  0xe9, 0xe0, 0x30, 0xec, 0xf9, 0xef, 0xf6, 0xcb, 0x24, 0xc3, 0x81, 0xff,
  0xe8, 0xe0, 0xe3, 0xf5, 0x32, 0xec, 0xcd, 0xc6, 0xdd, 0x15, 0x1d, 0xa9,
  0x56, 0xed, 0xdb, 0x05, 0x9d, 0xf0, 0xb2, 0xf2, 0xd9, 0xec, 0x3e, 0xeb,
  0xf7, 0x0f, 0xd0, 0xb5, 0x4a, 0xc4, 0xb2, 0x11, 0xc6, 0xdb, 0x01, 0x45,
  0x1c, 0xef, 0xc1, 0xc1, 0xc4, 0xa4, 0x07, 0x81, 0x11, 0xda, 0xc6, 0x3e,
  0x19, 0xd9, 0x0b, 0xdf, 0xd9, 0x0a, 0x16, 0x00, 0xe6, 0xe2, 0xd8, 0x0e,
  0xf4, 0xa0, 0xad, 0xc3, 0x09, 0xae, 0xff, 0x0c, 0xb3, 0xd0, 0xf4, 0xf1,
  0xa8, 0xb2, 0x05, 0x95, 0x05, 0xd8, 0x67, 0x27, 0x09, 0x02, 0xf4, 0xd2,
  0x02, 0x17, 0x16, 0xf4, 0xf2, 0xf0, 0xb9, 0xf1, 0x10, 0x9a, 0xe4, 0xb9,
  0x03, 0xa0, 0x1c, 0x38, 0xaa, 0xe4, 0xc2, 0x13, 0xb1, 0xc7, 0x24, 0xa7,
  0xe2, 0xd4, 0x2d, 0x0c, 0x17, 0x2f, 0x13, 0xd6, 0x15, 0x23, 0x24, 0xf5,
  0x0a, 0x02, 0xce, 0x19, 0x19, 0xcf, 0xf7, 0xcc, 0x28, 0xa3, 0x17, 0x04,
  0xb7, 0xfb, 0x14, 0x15, 0xff, 0xfa, 0x03, 0xfa, 0x00, 0xff, 0xaf, 0xf6,
  0xff, 0xf9, 0xf4, 0x04, 0x04, 0x03, 0x02, 0x09, 0xff, 0xfd, 0x02, 0xb4,
  0xfe, 0x02, 0xfe, 0xfd, 0x00, 0x0b, 0xff, 0x01, 0xf7, 0xfe, 0x08, 0x12,
  0x02, 0x0a, 0x02, 0x0d, 0xfa, 0xfc, 0x99, 0x0f, 0xf1, 0xfb, 0xe8, 0xfb,
  0xfb, 0x00, 0x03, 0xf5, 0x02, 0x05, 0xfd, 0xcd, 0x00, 0xfd, 0x01, 0xfd,
  0xfd, 0xf1, 0x00, 0x00, 0x04, 0x03, 0xfe, 0xf1, 0xfc, 0xfa, 0x02, 0xfc,
  0xff, 0x03, 0x9c, 0xf5, 0xee, 0xf9, 0xf6, 0x03, 0x05, 0xff, 0x04, 0x04,
  0xfc, 0xfb, 0x01, 0x81, 0xff, 0xfc, 0x00, 0xff, 0x01, 0x04, 0x02, 0x01,
  0xff, 0xff, 0xfe, 0x0d, 0xec, 0x15, 0xe2, 0xcf, 0x26, 0xf4, 0xdb, 0x2c,
  0x16, 0x0b, 0xdb, 0x05, 0x95, 0x8b, 0xd3, 0x26, 0x00, 0x03, 0x06, 0x01,
  0x02, 0xfe, 0xf4, 0xbe, 0xfb, 0x01, 0xf7, 0x0b, 0xbb, 0xda, 0xe6, 0xae,
  0xd9, 0x07, 0xf9, 0xc8, 0xeb, 0x07, 0x04, 0x1d, 0xe8, 0xf4, 0xee, 0x0f,
  0xe1, 0x81, 0x05, 0x11, 0xfc, 0xfb, 0xff, 0x0f, 0x19, 0xed, 0x25, 0xb1,
  0x03, 0x07, 0xf8, 0xf8, 0xb9, 0xd2, 0x02, 0xd5, 0xf0, 0x07, 0x1c, 0xc9,
  0x18, 0x01, 0x13, 0x14, 0xfa, 0xf3, 0x1e, 0x24, 0x1a, 0x9a, 0x10, 0x22,
  0xf0, 0x02, 0x02, 0x01, 0x1e, 0x2c, 0x1a, 0xf3, 0x2f, 0x1c, 0xff, 0xec,
  0xd4, 0x0a, 0x15, 0xf6, 0x91, 0xb9, 0x00, 0x0b, 0xf9, 0xda, 0xf1, 0xc9,
  0xec, 0x08, 0xcc, 0x08, 0xf7, 0x1a, 0xf5, 0xe0, 0x02, 0x17, 0xe2, 0x10,
  0x1d, 0x1b, 0x2a, 0x00, 0xfe, 0x19, 0xf8, 0x01, 0xcb, 0xed, 0xfa, 0xf7,
  0x81, 0xaa, 0x0f, 0x0e, 0xe8, 0xd2, 0x0a, 0xe5, 0xe1, 0x0d, 0xd8, 0x08,
  0x05, 0x0f, 0xed, 0xd9, 0xf5, 0xfc, 0xe0, 0x08, 0xfb, 0x13, 0x01, 0x08,
  0xf8, 0x0d, 0xfb, 0xff, 0xfc, 0xe0, 0x0b, 0xdd, 0x82, 0xbc, 0xfc, 0x1e,
  0xf0, 0xe2, 0x1d, 0xed, 0xf8, 0x19, 0xee, 0xf8, 0xfe, 0xf3, 0xff, 0xde,
  0x08, 0x02, 0xe5, 0x03, 0xef, 0x16, 0xf6, 0x05, 0xe2, 0x0a, 0xf7, 0x0d,
  0xf3, 0xdd, 0x05, 0x05, 0xff, 0x15, 0xee, 0x0b, 0x27, 0xff, 0xff, 0x1f,
  0xdd, 0xd7, 0x12, 0x0c, 0xce, 0xef, 0xe5, 0xd6, 0x32, 0xdb, 0xeb, 0xf2,
  0x1d, 0x05, 0xd5, 0xbd, 0xfd, 0xf3, 0x19, 0x16, 0x02, 0xf4, 0xf7, 0xb2,
  0xf9, 0x2c, 0xf1, 0x06, 0xf9, 0x0f, 0x10, 0x1a, 0x81, 0xcf, 0x04, 0xfc,
  0xbb, 0x0b, 0x00, 0xdc, 0x13, 0xe2, 0xec, 0xed, 0x0a, 0x1a, 0xe3, 0xd4,
  0x0f, 0xde, 0x0e, 0x1d, 0x22, 0x14, 0x1c, 0xb4, 0xe8, 0x3d, 0xe8, 0xf5,
  0x25, 0x13, 0x0a, 0x0d, 0xb0, 0xcc, 0xed, 0xfa, 0x33, 0x14, 0x18, 0xe8,
  0x00, 0xc7, 0xde, 0xf7, 0xf8, 0x16, 0xe8, 0xb4, 0x10, 0xe1, 0x0b, 0xf1,
  0x00, 0xff, 0x09, 0xb8, 0xc2, 0x4d, 0xe3, 0x1d, 0x0f, 0xa7, 0xae, 0x1f,
  0xf5, 0xf9, 0x16, 0x8c, 0x52, 0xe5, 0xec, 0x0b, 0xea, 0xf6, 0x34, 0xfa,
  0xc2, 0x12, 0xa2, 0xcf, 0x2a, 0xdc, 0x0a, 0xe0, 0xe6, 0x1c, 0xe4, 0x10,
  0x0b, 0x3c, 0xbf, 0xf6, 0xff, 0xab, 0xb4, 0x32, 0xfc, 0x02, 0xdb, 0x89,
  0x81, 0xd6, 0xfc, 0x0b, 0x0c, 0xd1, 0x07, 0x0a, 0xfa, 0xf1, 0xe3, 0xbd,
  0xf0, 0xde, 0x0f, 0x03, 0xd0, 0xe6, 0xc8, 0x16, 0xea, 0xe3, 0xaa, 0xe0,
  0xed, 0xe5, 0x0c, 0x3c, 0x3a, 0x12, 0xcb, 0x9e, 0x24, 0xcd, 0x16, 0x1a,
  0x4e, 0xd4, 0xff, 0x12, 0x46, 0x05, 0x33, 0x1d, 0xe1, 0x58, 0x2d, 0x08,
  0xb8, 0xe4, 0xd6, 0x19, 0x02, 0x07, 0xe2, 0xb3, 0xdc, 0x22, 0x01, 0x1a,
  0xf9, 0xef, 0xe7, 0x0d, 0x10, 0x09, 0xef, 0x09, 0x20, 0x03, 0x1a, 0x23,
  0xfe, 0x07, 0xf0, 0xfe, 0x1e, 0x17, 0xff, 0x01, 0x13, 0x0f, 0xae, 0x9b,
  0xf1, 0x07, 0xdc, 0xa9, 0x04, 0x09, 0x18, 0x24, 0x12, 0xe3, 0xdb, 0xff,
  0xfe, 0x16, 0xf1, 0x0d, 0x12, 0x0a, 0x11, 0x28, 0xf9, 0x0e, 0xf4, 0x0f,
  0x07, 0x11, 0x08, 0xf9, 0x10, 0x11, 0xaa, 0x81, 0xd1, 0x03, 0xb7, 0x94,
  0x05, 0x15, 0xfc, 0x12, 0xce, 0xde, 0xe5, 0x02, 0x19, 0x04, 0xe5, 0xec,
  0x12, 0xfa, 0xf8, 0xfc, 0x07, 0xf9, 0x09, 0x06, 0x01, 0x02, 0x29, 0x11,
  0x00, 0xf4, 0xb6, 0x91, 0xce, 0xf6, 0x2b, 0x00, 0xf1, 0xee, 0xe8, 0x28,
  0x99, 0xdc, 0xdf, 0x1c, 0x0a, 0x0a, 0x09, 0x56, 0x14, 0x01, 0x40, 0x05,
  0xf2, 0x31, 0xf1, 0x22, 0x19, 0x2c, 0xf1, 0xfc, 0x16, 0x0d, 0xd1, 0xe7,
  0xfe, 0xe8, 0x29, 0x0b, 0xf0, 0x09, 0xfd, 0x35, 0x81, 0xed, 0xf0, 0x28,
  0xda, 0x13, 0xea, 0x5d, 0x25, 0xec, 0x09, 0xfe, 0xfd, 0x3c, 0x17, 0x23,
  0x0b, 0x08, 0xff, 0x0d, 0x24, 0x05, 0xf9, 0xe8, 0x0f, 0x09, 0x31, 0x0a,
  0x0b, 0x03, 0x36, 0x40, 0xd8, 0xe8, 0xfe, 0x1d, 0x11, 0x04, 0x00, 0x70,
  0x3f, 0xe3, 0x2a, 0xef, 0x01, 0x1d, 0x37, 0x05, 0x13, 0x0e, 0x05, 0x08,
  0x19, 0x01, 0xf6, 0xe1, 0x09, 0x12, 0xf0, 0xc1, 0x3a, 0x02, 0x0a, 0xe6,
  0xe7, 0x15, 0xaf, 0xf6, 0x36, 0x0a, 0x03, 0x10, 0xf3, 0x26, 0xf2, 0xf3,
  0xe5, 0xe5, 0x30, 0x02, 0x2a, 0x27, 0xe1, 0x28, 0x1b, 0xcd, 0x04, 0xc0,
  0xe5, 0x0b, 0x0e, 0xf7, 0x3c, 0xf9, 0xf8, 0xe8, 0x05, 0x1b, 0x81, 0x0d,
  0xf1, 0x0a, 0xe8, 0x17, 0xe2, 0x12, 0xfc, 0xfd, 0xe7, 0xe7, 0x3b, 0xe2,
  0x13, 0x26, 0xf3, 0x3d, 0x22, 0xe6, 0xfe, 0xb1, 0x08, 0x0c, 0x00, 0xe8,
  0xd2, 0x0c, 0xd7, 0xd4, 0xd7, 0x00, 0x98, 0xf0, 0x48, 0xfb, 0xe8, 0x0d,
  0xeb, 0xf0, 0xf2, 0xe5, 0xe0, 0xd5, 0x43, 0xc6, 0x01, 0x1a, 0x1e, 0x26,
  0x17, 0xf4, 0xfb, 0xb8, 0xf8, 0xce, 0x19, 0xf4, 0x17, 0x0d, 0xfa, 0x32,
  0xde, 0x25, 0x10, 0x08, 0xa4, 0xf9, 0xe7, 0xdd, 0x1c, 0xf6, 0xd5, 0x18,
  0x0d, 0xb5, 0x87, 0x87, 0xdb, 0x1b, 0xe8, 0x00, 0x04, 0xe2, 0xd9, 0xc2,
  0xe1, 0x18, 0x09, 0xf5, 0x06, 0x20, 0xf8, 0x18, 0xd0, 0x22, 0x10, 0x0a,
  0x8a, 0x1c, 0x02, 0xe6, 0x03, 0xf8, 0xdb, 0xff, 0x10, 0xb5, 0xa1, 0x81,
  0xd2, 0x0c, 0xff, 0x0a, 0x2a, 0x0c, 0x10, 0xce, 0xdc, 0x3e, 0xd6, 0xf5,
  0x1c, 0x1a, 0x0f, 0x05, 0xa0, 0x14, 0x14, 0xfe, 0x1f, 0xfc, 0x20, 0xdb,
  0x08, 0x2d, 0xe4, 0xf7, 0x1a, 0xc6, 0x9f, 0xab, 0xca, 0xff, 0xee, 0x16,
  0x2b, 0x01, 0xf8, 0xdb, 0x00, 0x09, 0x11, 0x1b, 0x07, 0xff, 0xa8, 0x11,
  0x0b, 0x14, 0xf4, 0x83, 0xc6, 0x06, 0xe1, 0x1b, 0x11, 0xf2, 0x04, 0xda,
  0xff, 0xc8, 0x98, 0xde, 0xf4, 0xf1, 0x00, 0xfa, 0x04, 0x14, 0x18, 0xfa,
  0xf8, 0x0a, 0xe5, 0x2b, 0xed, 0xfe, 0xae, 0x14, 0xfb, 0xf4, 0x23, 0x81,
  0xdf, 0x0c, 0xe6, 0x13, 0x13, 0xfb, 0xf9, 0xd1, 0x17, 0xce, 0x96, 0xd8,
  0xf1, 0xee, 0x01, 0xf2, 0x13, 0x10, 0x1b, 0x0b, 0x07, 0x10, 0xc6, 0x30,
  0xe7, 0x01, 0xda, 0x27, 0x0a, 0xef, 0x2f, 0x99, 0x1d, 0xf1, 0xf5, 0x0f,
  0xef, 0x1a, 0x05, 0xef, 0x1c, 0xe9, 0xaa, 0xe8, 0xf5, 0xfe, 0xf3, 0xe4,
  0x0b, 0x0f, 0x23, 0x13, 0x40, 0x0f, 0x1d, 0xfa, 0x01, 0x0f, 0x8e, 0xf6,
  0xc3, 0xd3, 0xf4, 0xfa, 0xe9, 0xfc, 0x00, 0x14, 0x18, 0xf5, 0x0e, 0xc4,
  0x11, 0xfa, 0xef, 0xe4, 0x02, 0xe3, 0xc4, 0xe7, 0xed, 0x00, 0x03, 0xfa,
  0x25, 0x13, 0x1d, 0x10, 0xfa, 0x20, 0x81, 0xf2, 0xa5, 0xe8, 0xed, 0xfe,
  0xe7, 0x0a, 0x09, 0x0a, 0x0c, 0xf3, 0x24, 0xcd, 0x0a, 0x10, 0xd4, 0xed,
  0xf9, 0xe6, 0xc2, 0xec, 0xf7, 0x12, 0x0a, 0xf9, 0x26, 0x16, 0x1d, 0x09,
  0xfc, 0x13, 0x9b, 0xee, 0xde, 0xf1, 0xe6, 0xfa, 0xed, 0x10, 0x02, 0xf9,
  0x10, 0x02, 0x2d, 0xd9, 0x0b, 0x14, 0xd4, 0x15, 0xf5, 0xfc, 0xc5, 0xfa,
  0xf4, 0x25, 0x06, 0x08, 0xfe, 0xd0, 0xd4, 0x02, 0x1a, 0xd4, 0xdb, 0x09,
  0x11, 0x3d, 0xf8, 0xe9, 0x1b, 0xea, 0xa3, 0xf8, 0x01, 0x3c, 0x00, 0x11,
  0xa9, 0xec, 0x08, 0xbe, 0x08, 0xfa, 0xda, 0xc0, 0x05, 0x81, 0x13, 0x11,
  0xfe, 0xcf, 0xd3, 0x0c, 0x08, 0xcd, 0xec, 0x11, 0x1e, 0x33, 0xed, 0xe9,
  0x04, 0xee, 0x83, 0xfc, 0x0f, 0x31, 0xf1, 0x17, 0x9e, 0xf0, 0xfd, 0xf5,
  0x06, 0x0d, 0xf3, 0xc4, 0x05, 0x8a, 0x1a, 0x05, 0x03, 0xd5, 0xf0, 0x07,
  0x1e, 0xca, 0xa9, 0x05, 0xf2, 0x1b, 0xfe, 0xf1, 0x1b, 0xeb, 0x84, 0x00,
  0xf3, 0x2f, 0xfa, 0x02, 0xb0, 0xfc, 0x08, 0x0d, 0x0c, 0x03, 0xfd, 0xde,
  0x07, 0x99, 0x0f, 0x08, 0x25, 0xf9, 0xdd, 0xbe, 0xdf, 0x71, 0x07, 0xf7,
  0x20, 0xef, 0xe1, 0x27, 0xe3, 0x05, 0x11, 0x0e, 0xb3, 0xf5, 0xc4, 0x0d,
  0x10, 0xb1, 0x27, 0x81, 0xd3, 0xda, 0xd8, 0x2d, 0x22, 0xb8, 0xd4, 0xd9,
  0xdd, 0x1b, 0x22, 0xb0, 0xcd, 0x5f, 0x18, 0x00, 0xd7, 0xe1, 0xef, 0x1a,
  0xcd, 0xe8, 0x21, 0xf7, 0xa0, 0x1a, 0xdc, 0xeb, 0xfc, 0xaf, 0x13, 0xd5,
  0xc4, 0xe6, 0xce, 0x25, 0x2d, 0xdd, 0x06, 0xe7, 0xed, 0x1b, 0xd5, 0xd5,
  0x05, 0x59, 0x37, 0xf2, 0xea, 0xaf, 0x04, 0x0c, 0x19, 0xcf, 0x14, 0x06,
  0x99, 0x13, 0xe8, 0xfc, 0x01, 0xac, 0x03, 0xc6, 0xfd, 0xf2, 0xc9, 0x09,
  0x29, 0xca, 0xff, 0xed, 0x0f, 0xfa, 0x14, 0x01, 0x11, 0x14, 0xf6, 0x1f,
  0x07, 0x81, 0xf3, 0x1f, 0xac, 0x84, 0xf8, 0x1e, 0x0b, 0xdd, 0x01, 0xea,
  0xf9, 0x02, 0xe5, 0x0e, 0x33, 0xd0, 0xe4, 0xe4, 0xf1, 0x0b, 0x91, 0x94,
  0xef, 0x04, 0x08, 0x11, 0xf2, 0x08, 0xfe, 0x1b, 0xf2, 0x8c, 0xfc, 0xef,
  0xd4, 0xa1, 0x04, 0x17, 0x0d, 0xfa, 0x11, 0xf1, 0x07, 0x0d, 0xfd, 0xe3,
  0xf3, 0x23, 0xe8, 0xdb, 0x14, 0x07, 0x83, 0xa0, 0x14, 0x29, 0x16, 0x01,
  0x07, 0x0e, 0x0d, 0x0c, 0x08, 0xa9, 0x19, 0xf6, 0x07, 0xb0, 0x24, 0x39,
  0x11, 0x14, 0x0b, 0x19, 0x3a, 0x28, 0x31, 0xc6, 0x0a, 0x2c, 0x07, 0xdc,
  0x1a, 0xfc, 0xa7, 0xce, 0xda, 0xfe, 0x25, 0xdf, 0xe8, 0xd6, 0xee, 0xdb,
  0x0e, 0xb7, 0x05, 0x07, 0x03, 0xf5, 0xbf, 0x09, 0x81, 0xf2, 0x02, 0x08,
  0xf7, 0x00, 0x20, 0xea, 0x02, 0x03, 0x0a, 0x09, 0xfc, 0xf6, 0xe1, 0xd0,
  0xda, 0x07, 0xff, 0xe7, 0xfa, 0xd4, 0xfa, 0xc6, 0x0b, 0xca, 0x14, 0xfb,
  0xf7, 0xfd, 0xba, 0x0c, 0x93, 0xf1, 0x05, 0x05, 0xf7, 0x0f, 0xfa, 0xe3,
  0xfe, 0xf4, 0x0e, 0xfe, 0x10, 0xf8, 0xe0, 0xe3, 0xfb, 0x1a, 0x04, 0xf1,
  0x0f, 0xd7, 0xfc, 0xc8, 0xf9, 0xed, 0xff, 0xe1, 0x10, 0x0c, 0xc9, 0x15,
  0xc0, 0x07, 0x02, 0x05, 0x06, 0x20, 0x1a, 0xe4, 0x1a, 0xfd, 0xf8, 0x01,
  0x1f, 0xf7, 0xfb, 0xed, 0xcc, 0xfd, 0xf5, 0x06, 0xde, 0xfc, 0xf3, 0xfb,
  0xe1, 0x0c, 0x81, 0x15, 0xed, 0x20, 0xfa, 0xfb, 0x0f, 0x1b, 0x09, 0x19,
  0xf1, 0xd4, 0x1d, 0xe6, 0xc1, 0x12, 0xc0, 0x06, 0xcf, 0xd1, 0x0c, 0xe8,
  0xc7, 0x0c, 0xfc, 0x01, 0xf7, 0x07, 0xf5, 0xea, 0xfc, 0x03, 0x9b, 0x10,
  0xed, 0x2c, 0xfb, 0x00, 0xeb, 0x35, 0x06, 0x08, 0xfc, 0xc2, 0x24, 0xfa,
  0xd4, 0x0c, 0xf7, 0x0c, 0xd2, 0xd8, 0x0b, 0xdb, 0xd2, 0x0f, 0xf8, 0xf9,
  0x0b, 0xff, 0xf2, 0xde, 0xf6, 0xfa, 0xa2, 0x14, 0xf0, 0x24, 0xf6, 0x05,
  0x13, 0x15, 0xfd, 0xf8, 0xf9, 0xca, 0x1f, 0xf4, 0xd5, 0x00, 0xd6, 0x03,
  0xdb, 0xdd, 0x06, 0xd8, 0x04, 0xfc, 0x15, 0x1c, 0xe0, 0xeb, 0x0e, 0x1d,
  0xe2, 0xdc, 0x0a, 0x0b, 0x06, 0xf7, 0xf4, 0x13, 0x02, 0xef, 0x07, 0x04,
  0x14, 0x01, 0x01, 0x08, 0x8a, 0x03, 0x12, 0xff, 0x14, 0xf1, 0x01, 0x0c,
  0x02, 0xfc, 0x0e, 0xf9, 0x03, 0xfb, 0x10, 0x17, 0xec, 0xc5, 0x05, 0x05,
  0x02, 0xeb, 0xf9, 0x1c, 0x09, 0xf2, 0x01, 0x0a, 0x09, 0x13, 0xf9, 0xf8,
  0x81, 0xf4, 0x16, 0x0c, 0x14, 0xf2, 0xef, 0x0c, 0xf0, 0xfa, 0x09, 0x0f,
  0xfa, 0xea, 0xf8, 0x14, 0xef, 0xca, 0x05, 0x14, 0xec, 0xe7, 0xef, 0x15,
  0x0c, 0xec, 0xff, 0x02, 0xf6, 0xfe, 0xef, 0xff, 0x89, 0xfa, 0xff, 0x09,
  0x1d, 0xf2, 0xe4, 0x08, 0xf9, 0x0c, 0xed, 0x04, 0x96, 0xfe, 0xf9, 0x0a,
  0xea, 0x15, 0xb4, 0xf5, 0xeb, 0xe9, 0x07, 0xfa, 0xea, 0x18, 0xfb, 0x0a,
  0x06, 0x06, 0xfd, 0x0a, 0xf5, 0xf9, 0x00, 0xea, 0x0a, 0xf8, 0xfe, 0xf2,
  0xf9, 0x0c, 0xf8, 0xf7, 0xae, 0xf9, 0x02, 0x1a, 0x03, 0x0b, 0x9b, 0x08,
  0x01, 0xe1, 0xf5, 0xfe, 0xed, 0x11, 0x0b, 0x05, 0xf0, 0x01, 0xfc, 0x02,
  0xf8, 0x04, 0xf6, 0xec, 0x0a, 0xeb, 0xf7, 0xf2, 0xfb, 0xfe, 0xfc, 0x05,
  0xaf, 0x05, 0xee, 0xf9, 0xda, 0x11, 0x81, 0xf1, 0x08, 0xda, 0x0c, 0x0d,
  0xfc, 0xf4, 0xfe, 0x05, 0xed, 0x04, 0x04, 0x04, 0xea, 0xec, 0x09, 0xf3,
  0x07, 0xe5, 0xf2, 0xfe, 0xe6, 0xff, 0xf4, 0xfb, 0xdd, 0x11, 0x07, 0xd0,
  0xec, 0x2e, 0x14, 0x10, 0xfb, 0xee, 0x00, 0x17, 0x89, 0x11, 0xca, 0xbd,
  0x04, 0x0e, 0xb3, 0xd8, 0xda, 0xfe, 0x05, 0xf4, 0x1c, 0xd6, 0xcd, 0x08,
  0xd3, 0x14, 0xd6, 0xf1, 0x06, 0x24, 0x01, 0xd4, 0xf8, 0x1c, 0x0d, 0x2f,
  0x34, 0xf9, 0x09, 0x18, 0x81, 0x13, 0xca, 0xbb, 0xf8, 0x01, 0xe0, 0xc9,
  0xea, 0x00, 0xfa, 0xf0, 0x2b, 0xc0, 0xcf, 0xfc, 0xd4, 0x1c, 0xd9, 0xf4,
  0xff, 0xef, 0xfd, 0x1a, 0xe5, 0x0b, 0x08, 0x2c, 0xd0, 0x0e, 0xb7, 0x27,
  0xaf, 0xfd, 0xf3, 0xf0, 0xfc, 0x04, 0xe8, 0xcb, 0x03, 0xff, 0x0d, 0xff,
  0x32, 0xd2, 0xc0, 0xd6, 0xde, 0x0d, 0x0d, 0xfe, 0xf7, 0x0b, 0xee, 0xf0,
  0x23, 0x14, 0xd9, 0xea, 0x13, 0x00, 0x13, 0xaf, 0xbd, 0x2c, 0xd1, 0x11,
  0xfb, 0xe5, 0x07, 0xff, 0x30, 0x0f, 0x25, 0xc7, 0x03, 0x00, 0xf8, 0x18,
  0xe4, 0x1f, 0x18, 0x08, 0x28, 0x0e, 0xf7, 0xee, 0x0e, 0x0b, 0xe6, 0xf6,
  0xf3, 0x22, 0x26, 0xa8, 0x81, 0x22, 0xe5, 0x16, 0xf4, 0xfd, 0x0d, 0xd1,
  0x3e, 0x1a, 0x17, 0xb8, 0x0b, 0x15, 0x16, 0x18, 0xed, 0x07, 0x19, 0x0b,
  0x15, 0xfa, 0xe8, 0xf6, 0x07, 0x15, 0xe8, 0xf5, 0x01, 0xf8, 0x1b, 0xaf,
  0xa9, 0x07, 0xe1, 0xfe, 0xee, 0xef, 0xfd, 0xef, 0x15, 0x01, 0x09, 0xbb,
  0x13, 0xfc, 0x0c, 0x3f, 0x08, 0xf8, 0xf8, 0x0b, 0x06, 0x81, 0xc1, 0x07,
  0xe3, 0xed, 0xff, 0xfd, 0x08, 0xfb, 0x08, 0xf4, 0x09, 0x07, 0x05, 0xff,
  0x04, 0xf7, 0xfe, 0xf9, 0xfb, 0x0c, 0xfc, 0x00, 0xfc, 0x0b, 0x09, 0xfe,
  0xf3, 0x00, 0xfc, 0xfd, 0x07, 0x95, 0xb1, 0xfd, 0xe4, 0xee, 0xfc, 0x03,
  0xee, 0xfb, 0x11, 0xef, 0x08, 0xf4, 0xf8, 0xfe, 0xfa, 0xf4, 0xfc, 0xfc,
  0xfa, 0x03, 0x02, 0xfe, 0x0d, 0x08, 0x08, 0x00, 0x0a, 0xee, 0xfb, 0x05,
  0x04, 0x84, 0xc5, 0x01, 0xe8, 0xed, 0x02, 0xf7, 0xe8, 0xfb, 0x0d, 0xf3,
  0x0c, 0xf6, 0x02, 0xed, 0x08, 0xfd, 0xfd, 0xff, 0xf8, 0x02, 0xfe, 0xfe,
  0x02, 0x0c, 0x07, 0x05, 0x02, 0x1e, 0xe2, 0xff, 0xbe, 0x02, 0xeb, 0x09,
  0xbb, 0xe4, 0x25, 0x0b, 0x09, 0xfd, 0xf5, 0x05, 0xf6, 0xf6, 0x12, 0xf9,
  0x15, 0xdb, 0xf0, 0x0a, 0xd4, 0xf4, 0x08, 0xf0, 0xfc, 0x82, 0x15, 0x0d,
  0x13, 0x16, 0xd7, 0x02, 0xb9, 0x0a, 0xf2, 0x05, 0xd4, 0xe4, 0x00, 0x03,
  0xf7, 0xfc, 0xf8, 0xdf, 0xf7, 0xf7, 0x0a, 0x0a, 0x00, 0xee, 0xdf, 0x1f,
  0xd2, 0xe4, 0x00, 0xf4, 0xfd, 0x81, 0x1a, 0x08, 0xfc, 0x0c, 0xd6, 0xf4,
  0xb9, 0x02, 0xe4, 0x1f, 0xf6, 0xe6, 0xf8, 0xfa, 0xfc, 0xf0, 0x04, 0xee,
  0x05, 0xf1, 0x0a, 0x14, 0xfe, 0xfb, 0xe0, 0x0f, 0xd2, 0xe3, 0x10, 0xf8,
  0xf9, 0x8a, 0x14, 0x14, 0x96, 0xce, 0x0b, 0x03, 0xfa, 0xf1, 0xe5, 0xfc,
  0x06, 0xf1, 0x07, 0xf8, 0x03, 0x00, 0x06, 0x00, 0xee, 0x01, 0xf4, 0xff,
  0xfd, 0xfa, 0xed, 0xfd, 0x0b, 0xfa, 0x08, 0xe7, 0xfa, 0xd9, 0x0c, 0xf7,
  0x8d, 0xca, 0x06, 0x02, 0xff, 0xf0, 0xea, 0x01, 0x08, 0xf4, 0x15, 0xed,
  0xee, 0x01, 0x00, 0x03, 0xf5, 0xfe, 0xeb, 0xf9, 0x05, 0xf9, 0x12, 0xfc,
  0x09, 0xfc, 0x06, 0xf0, 0xfb, 0xce, 0xfd, 0xf6, 0x81, 0xe0, 0x01, 0x0a,
  0x0b, 0xf4, 0xf6, 0x09, 0xf9, 0x12, 0x04, 0xef, 0xee, 0xfc, 0x02, 0x02,
  0x00, 0x09, 0xf7, 0x1e, 0x0b, 0x09, 0xf3, 0xf8, 0xfe, 0x0d, 0xfd, 0x01,
  0xfc, 0xd8, 0x11, 0x03, 0xed, 0x13, 0xaa, 0xc7, 0xf5, 0xe8, 0xeb, 0x2c,
  0xd0, 0xd2, 0xe7, 0x08, 0xd8, 0xe9, 0x05, 0x9f, 0xa9, 0xd9, 0x15, 0xc4,
  0xdf, 0xca, 0x0a, 0xf7, 0xf4, 0x0c, 0xf9, 0x86, 0x2b, 0xed, 0xe7, 0xcb,
  0xf1, 0x3e, 0xfc, 0xc7, 0xd5, 0x14, 0xf0, 0x2a, 0x24, 0xe0, 0x15, 0x1e,
  0xe4, 0xe3, 0x3e, 0xb0, 0xb0, 0xf8, 0x36, 0xdf, 0xed, 0xcd, 0x03, 0x12,
  0x04, 0x22, 0x13, 0xc1, 0x27, 0x2a, 0xf5, 0xde, 0xf4, 0x37, 0xe5, 0xd6,
  0x34, 0x38, 0x39, 0x21, 0xcd, 0xd1, 0x0e, 0x16, 0x3f, 0xcd, 0x7f, 0xbf,
  0xd2, 0x03, 0x32, 0xf7, 0xf4, 0xc6, 0xf6, 0xec, 0x06, 0x20, 0xe8, 0xc4,
  0x37, 0xf1, 0xf4, 0xeb, 0xae, 0xea, 0xff, 0xff, 0x04, 0x00, 0x00, 0x00,
  0x00, 0x01, 0x00, 0x00, 0x53, 0xff, 0xff, 0xff, 0x31, 0x00, 0x00, 0x00,
  0x5d, 0xff, 0xff, 0xff, 0x38, 0xff, 0xff, 0xff, 0x70, 0x00, 0x00, 0x00,
  0x78, 0x00, 0x00, 0x00, 0xf7, 0xff, 0xff, 0xff, 0xeb, 0xff, 0xff, 0xff,
  0x38, 0x00, 0x00, 0x00, 0x3e, 0x01, 0x00, 0x00, 0x98, 0xff, 0xff, 0xff,
  0xea, 0xff, 0xff, 0xff, 0xa9, 0x00, 0x00, 0x00, 0x9c, 0xff, 0xff, 0xff,
  0x7f, 0xff, 0xff, 0xff, 0xe9, 0xff, 0xff, 0xff, 0xa7, 0xff, 0xff, 0xff,
  0x48, 0xff, 0xff, 0xff, 0xde, 0x00, 0x00, 0x00, 0x17, 0xff, 0xff, 0xff,
  0x79, 0xfe, 0xff, 0xff, 0xbe, 0xff, 0xff, 0xff, 0xc3, 0xff, 0xff, 0xff,
  0xde, 0xff, 0xff, 0xff, 0xef, 0xfe, 0xff, 0xff, 0x2e, 0xff, 0xff, 0xff,
  0x4d, 0xff, 0xff, 0xff, 0xa3, 0xfe, 0xff, 0xff, 0xe3, 0xff, 0xff, 0xff,
  0xc1, 0x00, 0x00, 0x00, 0x8a, 0xfe, 0xff, 0xff, 0xda, 0xfd, 0xff, 0xff,
  0x86, 0xff, 0xff, 0xff, 0x95, 0xfd, 0xff, 0xff, 0x05, 0x00, 0x00, 0x00,
  0x72, 0xff, 0xff, 0xff, 0xa7, 0xfe, 0xff, 0xff, 0x94, 0x00, 0x00, 0x00,
  0x49, 0xfe, 0xff, 0xff, 0xdc, 0xff, 0xff, 0xff, 0xbd, 0x00, 0x00, 0x00,
  0x46, 0xff, 0xff, 0xff, 0x23, 0xff, 0xff, 0xff, 0x7e, 0xff, 0xff, 0xff,
  0x1b, 0x00, 0x00, 0x00, 0xe9, 0xfe, 0xff, 0xff, 0x56, 0xfe, 0xff, 0xff,
  0x7f, 0xff, 0xff, 0xff, 0x75, 0x00, 0x00, 0x00, 0xe3, 0xfe, 0xff, 0xff,
  0xfa, 0xff, 0xff, 0xff, 0x7a, 0x01, 0x00, 0x00, 0xd7, 0xfe, 0xff, 0xff,
  0xf0, 0xfd, 0xff, 0xff, 0x49, 0xff, 0xff, 0xff, 0x9a, 0xff, 0xff, 0xff,
  0x6b, 0xff, 0xff, 0xff, 0x27, 0x00, 0x00, 0x00, 0x50, 0xff, 0xff, 0xff,
  0x23, 0x00, 0x00, 0x00, 0x1b, 0x00, 0x00, 0x00, 0x4c, 0x00, 0x00, 0x00,
  0x1d, 0x00, 0x00, 0x00, 0xb0, 0xff, 0xff, 0xff, 0xba, 0xeb, 0xff, 0xff,
  0x04, 0x00, 0x00, 0x00, 0x40, 0x00, 0x00, 0x00, 0xa9, 0xdf, 0x7f, 0xd5,
  0xbc, 0xe6, 0xf7, 0xba, 0xaf, 0xca, 0x9c, 0xba, 0xdf, 0xe1, 0xc3, 0xba,
  0xff, 0xcf, 0xb3, 0xa8, 0x9e, 0x20, 0xee, 0xe9, 0xb7, 0xb2, 0xa3, 0x9b,
  0xf6, 0xc6, 0x9d, 0xde, 0xb1, 0xe5, 0x08, 0xf3, 0xb3, 0xe2, 0x22, 0xd8,
  0xcb, 0xe1, 0x28, 0x0f, 0xc7, 0x0c, 0xa0, 0xb5, 0x08, 0x05, 0xbd, 0xc8,
  0xd4, 0x31, 0x19, 0xcd, 0xd4, 0xe6, 0x5b, 0x9a, 0xd3, 0xf9, 0xe9, 0xd7,
  0x06, 0xec, 0xff, 0xff, 0x04, 0x00, 0x00, 0x00, 0x40, 0x00, 0x00, 0x00,
  0x72, 0xa7, 0x45, 0x6f, 0xd5, 0x2a, 0x1e, 0x61, 0x5a, 0xe3, 0x62, 0x47,
  0x88, 0x66, 0x61, 0x52, 0x47, 0x60, 0x0f, 0x59, 0x69, 0x57, 0x56, 0x49,
  0x68, 0x71, 0x7c, 0x58, 0x33, 0xb6, 0x69, 0x71, 0x6c, 0x7c, 0x09, 0x71,
  0x68, 0x5b, 0x73, 0x43, 0x80, 0x55, 0x55, 0x70, 0x57, 0x6a, 0x58, 0x5b,
  0x54, 0x71, 0x4c, 0x17, 0x7f, 0x6e, 0x3f, 0x34, 0x4a, 0x20, 0x61, 0x6e,
  0x38, 0x1e, 0x3a, 0x6e, 0x52, 0xec, 0xff, 0xff, 0x04, 0x00, 0x00, 0x00,
  0x00, 0x10, 0x00, 0x00, 0xd9, 0xe0, 0xc2, 0xb8, 0x35, 0xff, 0x84, 0x15,
  0xfb, 0x25, 0x18, 0x18, 0x5c, 0x04, 0xb6, 0xe7, 0x60, 0x31, 0xbd, 0x3c,
  0xde, 0x82, 0x9a, 0x15, 0x19, 0xd2, 0xce, 0xf7, 0x45, 0xfa, 0xf6, 0xe6,
  0xef, 0x38, 0xfc, 0x81, 0xdb, 0xf3, 0x02, 0xe8, 0x51, 0x44, 0x2f, 0xde,
  0x3a, 0xe1, 0xf3, 0xac, 0xe4, 0xfb, 0x23, 0xb8, 0xd0, 0xd5, 0x1b, 0x2e,
  0x18, 0xe3, 0x4c, 0x2a, 0x04, 0x0f, 0x07, 0x07, 0x15, 0xcd, 0xab, 0xf8,
  0x07, 0x03, 0x0b, 0x1b, 0xf3, 0xc2, 0x00, 0x18, 0x41, 0x10, 0x0b, 0x0a,
  0x0e, 0x24, 0xbc, 0x81, 0xf6, 0xbb, 0x1b, 0x13, 0x1f, 0xf6, 0xa9, 0xc2,
  0x09, 0xfd, 0x32, 0x0a, 0x2b, 0xdc, 0x16, 0x12, 0xcc, 0x0d, 0x10, 0x03,
  0xfa, 0x23, 0xc7, 0x10, 0x2e, 0xe9, 0xc5, 0x04, 0x0d, 0x00, 0x2d, 0xbb,
  0xfc, 0x0b, 0x2e, 0x32, 0x23, 0xf4, 0x0e, 0xe5, 0x2e, 0xe1, 0xfa, 0xdc,
  0xd5, 0x1f, 0x1c, 0xe1, 0x19, 0xdf, 0x24, 0x3e, 0x55, 0xe7, 0x02, 0x2d,
  0x08, 0xb1, 0x29, 0x20, 0xd4, 0xf9, 0x16, 0x2a, 0x11, 0x40, 0xe8, 0x1c,
  0xdb, 0x51, 0xeb, 0xff, 0xfe, 0x53, 0xc5, 0xee, 0xef, 0x2f, 0x17, 0xf7,
  0x16, 0xe0, 0x45, 0xf1, 0x51, 0xd6, 0x0d, 0x90, 0xfa, 0x28, 0xdf, 0x00,
  0x09, 0xf2, 0x81, 0x04, 0xed, 0x0a, 0xf3, 0xbf, 0xda, 0x18, 0xdd, 0x0d,
  0xf2, 0xd7, 0xd0, 0xbf, 0xf8, 0x7f, 0xde, 0x19, 0x44, 0x5e, 0x1a, 0x50,
  0x46, 0xca, 0x4f, 0x24, 0xee, 0x27, 0x1f, 0xd3, 0xae, 0x2a, 0x19, 0x86,
  0x98, 0x02, 0x06, 0x02, 0x2d, 0x09, 0xee, 0x36, 0x00, 0x20, 0xe8, 0x24,
  0x23, 0xe1, 0xca, 0xf0, 0xd5, 0x0e, 0xa6, 0xaa, 0x3b, 0xa0, 0xe3, 0x17,
  0xf6, 0x2e, 0x25, 0x2c, 0xc3, 0xe2, 0xb1, 0x5e, 0xd3, 0x0a, 0x8d, 0x09,
  0x50, 0x26, 0x0f, 0x09, 0xf6, 0xa6, 0xc7, 0x48, 0x1b, 0xef, 0x36, 0x0b,
  0xfc, 0xfe, 0xf9, 0xf2, 0x81, 0xf2, 0x96, 0xd1, 0xf6, 0x04, 0x0e, 0xd3,
  0x09, 0x0a, 0x1c, 0x38, 0x11, 0xfc, 0x43, 0xb2, 0x30, 0xf9, 0xff, 0x46,
  0xcb, 0x1b, 0xdd, 0xbc, 0xbf, 0x24, 0xf4, 0x17, 0x96, 0x06, 0x9a, 0xe5,
  0x12, 0xe4, 0x19, 0xfe, 0xe4, 0xa6, 0x3a, 0xbe, 0x06, 0xcc, 0xc5, 0xc5,
  0x1e, 0x5a, 0x1b, 0xe5, 0x09, 0x1e, 0xd2, 0xe2, 0x11, 0x4d, 0xc2, 0xfe,
  0x14, 0x7f, 0xee, 0x2c, 0x52, 0xc9, 0xb1, 0x2a, 0x0b, 0xf7, 0x54, 0xea,
  0xeb, 0xd6, 0x11, 0x2e, 0xff, 0x54, 0x42, 0x45, 0x2a, 0x36, 0x04, 0xfe,
  0x3a, 0xdb, 0x03, 0x4d, 0x25, 0x53, 0x2a, 0xc9, 0x2a, 0x33, 0xd0, 0xbb,
  0x36, 0x21, 0xf9, 0xee, 0x4b, 0xd0, 0xfc, 0xf1, 0x3a, 0xab, 0xf2, 0x0d,
  0x25, 0x1c, 0xd9, 0x05, 0x06, 0x94, 0x16, 0xed, 0xd7, 0x18, 0x06, 0x21,
  0x18, 0xdc, 0xdf, 0x8e, 0x17, 0xf8, 0xae, 0xf0, 0x22, 0x08, 0x0e, 0xfd,
  0xfb, 0xe6, 0xe6, 0xde, 0x8e, 0x12, 0x04, 0xd3, 0x41, 0x7f, 0x34, 0x25,
  0xf1, 0xb2, 0xb1, 0x0f, 0x72, 0xc8, 0x19, 0x05, 0xd2, 0xc8, 0xff, 0x01,
  0x1b, 0x1f, 0x1c, 0xe7, 0x05, 0x04, 0xf4, 0xd3, 0xd9, 0xba, 0xf8, 0x52,
  0xd9, 0x25, 0x4a, 0x0f, 0x01, 0xf5, 0x06, 0x14, 0xfc, 0xf4, 0xe2, 0x0e,
  0x12, 0xf2, 0xeb, 0x17, 0xcf, 0x45, 0x1f, 0xe3, 0x0f, 0xf4, 0xd6, 0x1a,
  0xfb, 0x37, 0x22, 0xb4, 0xfc, 0xf6, 0x0a, 0xdc, 0x0c, 0x1e, 0x33, 0x00,
  0xfa, 0x0a, 0xec, 0xfa, 0x26, 0xe0, 0xa0, 0x17, 0xf7, 0x0b, 0xcd, 0x2d,
  0xd9, 0x09, 0xf3, 0x2d, 0x21, 0xe8, 0xe8, 0xc3, 0xcd, 0x07, 0xf3, 0xc2,
  0x28, 0xfb, 0x0f, 0x2b, 0xcf, 0xfa, 0xe9, 0x04, 0xea, 0xd1, 0xff, 0xe8,
  0x0c, 0x2f, 0x81, 0xf8, 0x2b, 0x2f, 0xa5, 0xba, 0xf1, 0xeb, 0xf9, 0xfd,
  0x0c, 0xfe, 0x19, 0x0f, 0x01, 0xc7, 0xf1, 0x20, 0xec, 0xf3, 0xc7, 0x29,
  0x05, 0xfb, 0x81, 0xd2, 0xff, 0xcf, 0xbd, 0xee, 0x08, 0x22, 0x1a, 0xaa,
  0x23, 0x12, 0xf1, 0x0a, 0xd6, 0xf5, 0xfa, 0xe4, 0xbe, 0xfa, 0x01, 0x0e,
  0xfa, 0xe2, 0xfe, 0xfd, 0xef, 0xf1, 0x22, 0xf5, 0x05, 0xf5, 0x01, 0x1d,
  0x0b, 0xd1, 0x11, 0xeb, 0xc3, 0x09, 0xd0, 0xff, 0xff, 0xea, 0xff, 0x05,
  0xea, 0x18, 0xe8, 0x9d, 0xf6, 0xf1, 0x04, 0x0d, 0xfe, 0x1e, 0x1a, 0x05,
  0xf4, 0x44, 0x09, 0x1a, 0xe2, 0x1a, 0x1e, 0xd3, 0xd8, 0x26, 0xfc, 0x1c,
  0xa6, 0xf1, 0x2c, 0xe5, 0xf9, 0xf0, 0xf2, 0x01, 0xd8, 0x25, 0xdc, 0x14,
  0xe8, 0xfb, 0xdd, 0x10, 0xf1, 0x01, 0xff, 0x81, 0x16, 0xe7, 0xef, 0xfc,
  0xe4, 0xcd, 0x22, 0x2c, 0xfe, 0xf3, 0xd1, 0x05, 0x11, 0x13, 0xf4, 0x26,
  0x0f, 0x28, 0xf8, 0x1c, 0xe1, 0x48, 0xe6, 0x0a, 0xe1, 0xdc, 0xfa, 0xec,
  0xe8, 0xf0, 0x2a, 0xe7, 0xf9, 0x0c, 0xff, 0xf8, 0xe0, 0xe0, 0x2e, 0xf0,
  0x02, 0x81, 0xfc, 0x25, 0x04, 0xf7, 0xf2, 0xd7, 0xb7, 0x23, 0xfd, 0xe4,
  0xff, 0xef, 0xec, 0x0c, 0x0a, 0x12, 0xd9, 0x10, 0xff, 0xd1, 0x30, 0xf1,
  0xee, 0x07, 0x2f, 0x9d, 0x15, 0x06, 0x07, 0x00, 0xe7, 0x1a, 0x05, 0xfe,
  0x0b, 0x16, 0x13, 0x00, 0xd4, 0x14, 0xf0, 0xd6, 0xd6, 0x12, 0x32, 0x08,
  0xfc, 0x05, 0xf2, 0x28, 0x05, 0xd7, 0xeb, 0x0f, 0xd0, 0xf4, 0xc1, 0x33,
  0xf4, 0xfd, 0x21, 0x81, 0x17, 0x10, 0xcb, 0x03, 0x11, 0xfe, 0xe4, 0x87,
  0x1d, 0x02, 0x00, 0x33, 0xa0, 0x14, 0xd6, 0x91, 0xe7, 0x08, 0xee, 0x02,
  0x9c, 0xe1, 0xc2, 0xe1, 0xf2, 0x8c, 0x3f, 0x04, 0xcd, 0x03, 0xf6, 0x1b,
  0xf4, 0xa4, 0xe9, 0xe6, 0xc0, 0x40, 0xe7, 0x20, 0x29, 0xd0, 0xd7, 0xf8,
  0xbf, 0x09, 0xd7, 0xee, 0xe5, 0xc6, 0x00, 0x25, 0x03, 0x02, 0xce, 0x51,
  0x30, 0x1f, 0x11, 0x41, 0x49, 0x1c, 0xf9, 0xf2, 0xec, 0xf7, 0xe5, 0x18,
  0x22, 0xa2, 0xcc, 0x07, 0x05, 0x42, 0xd5, 0x17, 0x04, 0x18, 0xe4, 0xcc,
  0x0a, 0xe5, 0xbf, 0xde, 0x1d, 0xe2, 0xdd, 0x04, 0x59, 0x04, 0x4d, 0x26,
  0xe7, 0x12, 0xca, 0x0d, 0xdf, 0x03, 0x2d, 0xc5, 0xbc, 0x24, 0xc6, 0xf2,
  0x14, 0x06, 0xb0, 0x81, 0x21, 0xe4, 0xe3, 0x9c, 0x0c, 0x49, 0x07, 0x16,
  0x19, 0xe0, 0xce, 0x18, 0xee, 0xf2, 0x43, 0x20, 0xd8, 0x81, 0x3c, 0x0c,
  0xea, 0x39, 0x05, 0x21, 0x1a, 0x35, 0xe9, 0x24, 0xf2, 0x0b, 0x05, 0x1b,
  0xfa, 0xed, 0x1f, 0xf2, 0xf9, 0xda, 0x33, 0x17, 0x3e, 0x1d, 0x14, 0x06,
  0x4b, 0x31, 0x0a, 0xed, 0xf8, 0xc3, 0xe4, 0x16, 0x01, 0xfc, 0x0b, 0xde,
  0xef, 0xee, 0xf9, 0x24, 0x16, 0xf3, 0x1a, 0x0d, 0x12, 0xe8, 0x11, 0xa1,
  0x46, 0x24, 0xae, 0x04, 0xd3, 0x2d, 0xe1, 0xe6, 0xf1, 0x9c, 0x07, 0x11,
  0x2b, 0xea, 0xe7, 0x19, 0xd5, 0x46, 0x02, 0xbc, 0x16, 0x09, 0xf0, 0x25,
  0x7f, 0x8b, 0x1d, 0x05, 0xeb, 0xeb, 0x2b, 0x45, 0xf6, 0x0c, 0x13, 0x34,
  0x02, 0x36, 0xf8, 0xe9, 0xb4, 0xb0, 0x07, 0x5a, 0xfc, 0xc4, 0xf4, 0xf6,
  0x1f, 0x03, 0x1b, 0x05, 0x17, 0xcd, 0x24, 0x3d, 0xdd, 0x05, 0x38, 0xe8,
  0x27, 0xb4, 0xc5, 0x0c, 0x30, 0x39, 0xe4, 0x6c, 0x17, 0xf0, 0xbe, 0x81,
  0xc7, 0x43, 0x23, 0x08, 0xd8, 0x0f, 0x44, 0xcf, 0x96, 0x62, 0x2d, 0x19,
  0x97, 0xe8, 0xc5, 0x15, 0x2b, 0xc7, 0xe6, 0x39, 0x11, 0x6b, 0xfb, 0x2c,
  0x18, 0xcf, 0x15, 0x35, 0xea, 0x2b, 0xc3, 0xd0, 0x55, 0xa2, 0x35, 0xa2,
  0x21, 0x05, 0x57, 0x00, 0xd6, 0x0b, 0xca, 0x18, 0x39, 0x0d, 0x12, 0x2a,
  0x70, 0x1f, 0xf6, 0xc1, 0x12, 0x13, 0x20, 0x39, 0xc7, 0xf5, 0x26, 0xf3,
  0xec, 0x0e, 0x12, 0xc6, 0xe8, 0x1b, 0x07, 0x14, 0xf6, 0x10, 0x0c, 0xc4,
  0xf3, 0xb2, 0x04, 0xf8, 0xe9, 0x03, 0xd1, 0xe6, 0x14, 0x36, 0xfa, 0xd2,
  0xef, 0x12, 0xdc, 0x0c, 0xee, 0xf7, 0xda, 0x08, 0xf1, 0xc1, 0x20, 0xed,
  0x34, 0x21, 0x81, 0xf7, 0x31, 0xf3, 0x11, 0x15, 0xe5, 0xc7, 0x16, 0xe2,
  0x1d, 0x10, 0x03, 0xd5, 0xc4, 0x1e, 0x0c, 0xeb, 0xed, 0xe4, 0x1d, 0x10,
  0x38, 0x0a, 0xe0, 0xf4, 0x16, 0xe7, 0x07, 0xf1, 0x21, 0xe1, 0xf0, 0x26,
  0xff, 0x81, 0x1a, 0x0c, 0x06, 0xec, 0x06, 0x09, 0xf2, 0x43, 0xff, 0xf8,
  0x07, 0xd9, 0x0f, 0x1e, 0x30, 0x01, 0x02, 0xf2, 0x18, 0xed, 0xf0, 0x0a,
  0x22, 0x09, 0x24, 0xa5, 0x0e, 0x06, 0xef, 0x0e, 0x26, 0x98, 0xce, 0xd4,
  0x24, 0xfd, 0x16, 0xfb, 0xd7, 0xa7, 0x26, 0xfc, 0xfb, 0xc9, 0x11, 0x22,
  0x23, 0xc0, 0xeb, 0xdc, 0x21, 0x23, 0x06, 0x01, 0x11, 0xd7, 0xd6, 0x22,
  0xe0, 0x12, 0xc6, 0x1a, 0xfc, 0xfd, 0xb7, 0xc5, 0x0d, 0xe0, 0xef, 0xf0,
  0xfd, 0x00, 0x09, 0xe3, 0x22, 0x11, 0x13, 0x07, 0xe6, 0x05, 0xe5, 0xcb,
  0xad, 0x05, 0xca, 0x0e, 0x09, 0xe8, 0xda, 0x1a, 0x41, 0xe7, 0x1c, 0x05,
  0x39, 0xf5, 0x08, 0x21, 0xdd, 0x81, 0xf8, 0xf3, 0xce, 0x07, 0xf4, 0x0c,
  0x0e, 0xf5, 0x0f, 0x0b, 0x15, 0x24, 0xd7, 0xf0, 0xf8, 0x27, 0xc5, 0x13,
  0x32, 0xdf, 0x98, 0x57, 0x34, 0xfe, 0x00, 0x14, 0xfa, 0x14, 0xea, 0xec,
  0x5b, 0x0b, 0xbb, 0x34, 0xe1, 0xdc, 0xd7, 0x0c, 0x26, 0x26, 0xcc, 0xcb,
  0x35, 0xff, 0x38, 0xe4, 0xe2, 0xb4, 0xc7, 0xea, 0xf0, 0x09, 0x11, 0x0a,
  0x2d, 0x09, 0x15, 0xf2, 0x39, 0x81, 0xbe, 0xe2, 0x22, 0xf1, 0x17, 0xed,
  0x0c, 0xce, 0x1e, 0x10, 0xdb, 0x03, 0x23, 0xeb, 0x13, 0x1c, 0xef, 0x19,
  0xb4, 0xcf, 0xfe, 0xb7, 0xad, 0xda, 0xf6, 0xea, 0x18, 0x20, 0x13, 0x26,
  0xb1, 0xeb, 0x7e, 0x12, 0x0f, 0xb2, 0x26, 0xdf, 0x0a, 0x05, 0x09, 0x04,
  0xcb, 0x15, 0xc3, 0xdd, 0x00, 0xc6, 0x08, 0x30, 0xe7, 0xef, 0x3b, 0x7f,
  0x34, 0xd5, 0x13, 0x00, 0x91, 0x20, 0xea, 0x06, 0x2f, 0xd1, 0xa9, 0x46,
  0xfe, 0x4d, 0x18, 0x2d, 0x06, 0x09, 0xfc, 0xf8, 0xb0, 0x0b, 0xd9, 0xef,
  0xfb, 0xee, 0x15, 0xff, 0xc5, 0x07, 0xe7, 0xeb, 0x01, 0xd2, 0x03, 0x01,
  0x0e, 0x45, 0x1a, 0x1e, 0xfb, 0xde, 0xfa, 0xf5, 0x0d, 0xe0, 0x0b, 0x0e,
  0x1c, 0xfa, 0xda, 0x1b, 0x03, 0x38, 0xd0, 0xdd, 0x1e, 0x05, 0xec, 0xfc,
  0x0a, 0x06, 0xe9, 0xf6, 0x1d, 0x9f, 0x2b, 0x1e, 0xf6, 0x09, 0xed, 0xe2,
  0x14, 0x01, 0x14, 0x0b, 0x81, 0x25, 0xee, 0x3e, 0xd9, 0x19, 0x06, 0xda,
  0xd8, 0xf5, 0xd1, 0xd3, 0xf0, 0x23, 0xff, 0x07, 0xbd, 0x00, 0xed, 0x1e,
  0x2c, 0xc0, 0xd1, 0x0b, 0x0b, 0xaf, 0xd3, 0xb0, 0xf8, 0x00, 0xe3, 0x14,
  0x3a, 0x3c, 0xd6, 0xcd, 0x34, 0x07, 0x1e, 0xd1, 0x6e, 0x95, 0x25, 0x38,
  0xcc, 0xd3, 0x3f, 0x01, 0x05, 0x01, 0x35, 0xdd, 0xd0, 0x1a, 0xf0, 0x1b,
  0xe8, 0x08, 0x1a, 0x7f, 0x0a, 0xe1, 0xff, 0x10, 0x4d, 0xf9, 0x1e, 0x13,
  0x1b, 0xa4, 0xf4, 0x38, 0xbb, 0xdd, 0x0f, 0xbb, 0xf1, 0xe1, 0xf8, 0x14,
  0xf1, 0xe0, 0x0c, 0xd0, 0xe1, 0x00, 0xf1, 0xe6, 0xfc, 0x0a, 0xf2, 0x14,
  0xa4, 0x0d, 0x52, 0x09, 0x04, 0xbc, 0x0b, 0xe7, 0xf6, 0xf1, 0x11, 0xff,
  0xf4, 0x0e, 0x04, 0xc4, 0xf2, 0xd9, 0xd3, 0xee, 0xe5, 0x10, 0x1a, 0x7f,
  0x22, 0xfa, 0xf4, 0xfb, 0xb9, 0xfd, 0xfb, 0x07, 0x06, 0x12, 0xf1, 0x27,
  0x06, 0x0f, 0x13, 0x1d, 0x01, 0x09, 0xf1, 0x03, 0xf0, 0x13, 0x04, 0xe1,
  0xf9, 0x0e, 0x00, 0xfd, 0xff, 0xca, 0x13, 0x2a, 0xfd, 0xf4, 0xfb, 0x07,
  0x11, 0xfc, 0x10, 0x2f, 0x25, 0xd4, 0xf7, 0x10, 0xee, 0xe3, 0xf4, 0xdf,
  0xe6, 0x12, 0xc8, 0xc9, 0x0f, 0xec, 0xdc, 0x05, 0x03, 0x1a, 0x00, 0x2e,
  0x2a, 0xa5, 0x37, 0x17, 0xf1, 0xce, 0x06, 0x0b, 0xcf, 0x05, 0x08, 0xb1,
  0xef, 0x1b, 0xf5, 0x30, 0x17, 0x11, 0xfc, 0x22, 0x81, 0x09, 0x05, 0x1c,
  0x10, 0xe9, 0xcc, 0x05, 0xe5, 0xf8, 0xfe, 0xd2, 0xfc, 0xf3, 0x30, 0xdf,
  0xdc, 0x30, 0x0b, 0x08, 0x10, 0x03, 0x18, 0x46, 0xd4, 0x33, 0xd0, 0xf1,
  0xcb, 0x16, 0xf7, 0x81, 0x94, 0xea, 0xe8, 0xd6, 0x14, 0xac, 0xff, 0x12,
  0xec, 0xdd, 0xe6, 0xf4, 0x17, 0x89, 0xf5, 0xe5, 0x1e, 0xf0, 0xdd, 0xd5,
  0xfc, 0x12, 0x03, 0xec, 0xda, 0x1f, 0x03, 0x19, 0x08, 0x0c, 0x2a, 0x18,
  0xe2, 0x04, 0xce, 0x35, 0x06, 0x44, 0x02, 0x01, 0xf2, 0x31, 0x05, 0x1e,
  0x0b, 0xd2, 0xad, 0xa2, 0x0e, 0x16, 0x25, 0xbc, 0xac, 0x0e, 0x2a, 0x12,
  0x81, 0x27, 0x2d, 0xc1, 0x1c, 0x5f, 0x15, 0x16, 0x2f, 0xb9, 0xcf, 0x13,
  0x42, 0xbb, 0x06, 0x0c, 0xcf, 0xc8, 0x02, 0x05, 0x27, 0xf2, 0x1d, 0xfd,
  0x2c, 0x11, 0x2c, 0xd4, 0xc5, 0xde, 0xf1, 0xe6, 0x0c, 0x0a, 0x40, 0xae,
  0x0b, 0xe7, 0xf2, 0x0e, 0xbf, 0x13, 0xff, 0x19, 0x0c, 0x1c, 0xff, 0x29,
  0xaf, 0x4d, 0x0e, 0x0e, 0x03, 0xf3, 0x07, 0xfc, 0x11, 0xd5, 0x1d, 0x11,
  0x20, 0xdd, 0xcc, 0xde, 0xf9, 0x1e, 0x22, 0xfa, 0x08, 0x25, 0xc6, 0xe5,
  0xf0, 0x94, 0x31, 0xf9, 0x7f, 0xd9, 0x20, 0xff, 0xbd, 0xc8, 0x0f, 0xc9,
  0x0e, 0xe7, 0x12, 0xf0, 0xb6, 0x0b, 0xf0, 0xf8, 0xf3, 0xa1, 0x24, 0x4b,
  0xdd, 0x17, 0x20, 0x11, 0x14, 0xdf, 0x03, 0x0a, 0x1a, 0xd8, 0x22, 0x46,
  0x18, 0x03, 0x16, 0xd2, 0xff, 0x0a, 0x00, 0x30, 0xee, 0xff, 0xed, 0xf7,
  0x02, 0xbd, 0x34, 0xce, 0x0a, 0xcb, 0x41, 0x10, 0x0b, 0x0d, 0xf8, 0x44,
  0x0e, 0x35, 0x4b, 0x06, 0xdb, 0x13, 0xd1, 0xee, 0xdf, 0xec, 0x10, 0x04,
  0x09, 0xd8, 0x24, 0x7f, 0xe7, 0xf2, 0x42, 0xfa, 0x13, 0x0c, 0x21, 0x33,
  0x19, 0x3b, 0x9f, 0xfe, 0x2e, 0x00, 0xf3, 0xd6, 0x30, 0x19, 0x3d, 0x1d,
  0xf0, 0xb8, 0x36, 0x2b, 0xfe, 0x8d, 0x20, 0xef, 0xd3, 0xc4, 0x2d, 0xd1,
  0xd3, 0x6d, 0xf5, 0xc0, 0x10, 0x8f, 0x11, 0xfc, 0x14, 0x7f, 0x20, 0x1d,
  0xe1, 0xbb, 0x13, 0x7e, 0x27, 0x08, 0x4a, 0x2a, 0xc8, 0x0e, 0xea, 0x0a,
  0xf8, 0xe7, 0x1b, 0xc9, 0x1d, 0xe1, 0x2d, 0xd7, 0xdb, 0x35, 0xbb, 0xf2,
  0x0a, 0xb4, 0x18, 0x33, 0xdc, 0xed, 0xaf, 0xe7, 0x3f, 0x12, 0x4a, 0xf0,
  0x93, 0xfe, 0xb6, 0x70, 0x1d, 0x1a, 0xf4, 0x00, 0xe0, 0x12, 0x86, 0x9f,
  0xaa, 0x2b, 0x47, 0xdd, 0x1c, 0x65, 0x24, 0xb8, 0xfc, 0x0d, 0xa4, 0xe4,
  0x8c, 0x14, 0xac, 0x1e, 0xea, 0xf9, 0xe6, 0xda, 0x0c, 0x19, 0xd8, 0xf7,
  0x3b, 0x09, 0x60, 0x1c, 0x44, 0x2f, 0x11, 0x52, 0xd6, 0xdc, 0x10, 0xf3,
  0xc3, 0x08, 0xbc, 0xce, 0x1a, 0xff, 0xd9, 0xb5, 0x22, 0xe0, 0x30, 0xfe,
  0xc1, 0xcb, 0x14, 0x06, 0xef, 0x06, 0x12, 0x2c, 0xff, 0x12, 0x27, 0xec,
  0x20, 0xfb, 0xfd, 0x81, 0x51, 0x0e, 0x22, 0xd4, 0x1f, 0xc5, 0xfb, 0x0a,
  0x22, 0x05, 0xfd, 0x13, 0x81, 0x08, 0xc6, 0x00, 0x0b, 0xff, 0x11, 0xb3,
  0x27, 0xf2, 0xf8, 0x0c, 0x1d, 0xfe, 0x17, 0xc6, 0x16, 0x0d, 0xd7, 0x14,
  0xfc, 0xff, 0xeb, 0xea, 0xe1, 0xea, 0xee, 0xfb, 0xe5, 0xf4, 0xb8, 0x0e,
  0x2a, 0x14, 0xfe, 0xf9, 0x1d, 0xe1, 0xff, 0x17, 0x02, 0xe3, 0xe2, 0xb2,
  0xda, 0x19, 0xda, 0x03, 0x16, 0x0b, 0xd3, 0xe0, 0x07, 0x1f, 0xec, 0x04,
  0xcb, 0xd4, 0x09, 0xc2, 0xb8, 0x01, 0x06, 0xc0, 0x0e, 0x12, 0x00, 0x23,
  0xa7, 0xed, 0x5a, 0x00, 0xf3, 0xc1, 0x1e, 0xfa, 0xd5, 0xf2, 0x09, 0xf9,
  0xcc, 0x04, 0xe7, 0xc8, 0x01, 0x81, 0xdd, 0xd9, 0xbe, 0x05, 0x15, 0x79,
  0x19, 0xf5, 0xfa, 0x02, 0x0c, 0xf6, 0xf8, 0xf7, 0x2f, 0xe1, 0xca, 0x24,
  0x1a, 0x1b, 0x22, 0x17, 0xf1, 0x0d, 0x10, 0xfb, 0xab, 0x04, 0x11, 0xf4,
  0xda, 0x05, 0x1d, 0x05, 0xf2, 0xf9, 0xff, 0xf5, 0xfb, 0xf4, 0x10, 0x08,
  0x07, 0xfa, 0x08, 0xfe, 0xe0, 0xfb, 0x46, 0x03, 0xfc, 0xe1, 0xfe, 0x11,
  0x09, 0xf1, 0x06, 0xf7, 0xef, 0x46, 0x08, 0xfb, 0xf3, 0x06, 0xff, 0x00,
  0xfd, 0x02, 0xf8, 0x7f, 0x15, 0xf4, 0x12, 0xfc, 0xe5, 0x02, 0x10, 0x0a,
  0xff, 0x08, 0xf8, 0x0f, 0x0b, 0xff, 0x06, 0x06, 0xff, 0x01, 0x08, 0x10,
  0xfa, 0x12, 0xf3, 0xf7, 0xf4, 0xfe, 0x00, 0x08, 0xfa, 0x06, 0xb7, 0x1b,
  0x02, 0xf1, 0xd3, 0x38, 0xe1, 0x0d, 0xf5, 0x12, 0xd1, 0x07, 0x08, 0x81,
  0xde, 0x27, 0xeb, 0x39, 0xbd, 0xb4, 0x0c, 0xa5, 0x34, 0x0b, 0xe9, 0x22,
  0xa2, 0x1d, 0xde, 0xa6, 0x07, 0x14, 0x07, 0x0f, 0xd1, 0x15, 0x94, 0xd8,
  0x0a, 0xa3, 0x25, 0x2c, 0xd5, 0x24, 0x15, 0x47, 0xee, 0xc5, 0xb4, 0x14,
  0xb7, 0x2b, 0x9e, 0x38, 0x38, 0x1f, 0xed, 0x11, 0xde, 0x28, 0xad, 0x00,
  0x12, 0x1a, 0x4e, 0xa8, 0x12, 0xd2, 0x04, 0x05, 0xa5, 0x3e, 0x8e, 0x23,
  0xde, 0xfe, 0xe8, 0xd0, 0x3a, 0x05, 0xe8, 0x02, 0x16, 0xf0, 0x40, 0xbb,
  0x31, 0xfd, 0x12, 0xfc, 0xd8, 0xdf, 0xd9, 0xbe, 0x81, 0x18, 0xf0, 0x05,
  0xfe, 0xd6, 0xc5, 0xd7, 0x08, 0x2d, 0xfc, 0x1e, 0xe7, 0xb2, 0x26, 0xef,
  0xfe, 0xf7, 0x18, 0x10, 0xdd, 0x69, 0x23, 0x06, 0xec, 0x11, 0xbd, 0xf4,
  0xfc, 0x52, 0xe7, 0xe1, 0x04, 0xba, 0x03, 0x2e, 0xeb, 0x18, 0xfd, 0xfb,
  0x1c, 0x2d, 0x2c, 0x0c, 0x63, 0x06, 0xe0, 0x04, 0x25, 0x94, 0x56, 0x0e,
  0x1b, 0xe3, 0xe5, 0xc8, 0xa9, 0x21, 0xc0, 0xeb, 0xf5, 0x67, 0xe9, 0x20,
  0x13, 0x21, 0xc5, 0x0e, 0xd1, 0xdd, 0x25, 0xdb, 0x19, 0x59, 0xf9, 0x8d,
  0x17, 0x37, 0xe9, 0xd4, 0xff, 0x05, 0x00, 0x81, 0x18, 0xff, 0x2a, 0xdc,
  0xef, 0xe5, 0x1b, 0xf2, 0xf4, 0x06, 0xe2, 0xce, 0x1d, 0x20, 0x68, 0x1f,
  0xd6, 0xed, 0x05, 0xd2, 0xdc, 0x37, 0xf9, 0x0f, 0xf7, 0x24, 0x38, 0xb0,
  0xd9, 0x14, 0x16, 0xf5, 0xe2, 0xf5, 0xfd, 0xbd, 0xbc, 0x11, 0x1c, 0xcb,
  0xfb, 0x61, 0xc1, 0x09, 0xb1, 0x1f, 0xb7, 0xf5, 0xcd, 0xf3, 0x26, 0xae,
  0x10, 0x18, 0x81, 0xce, 0x53, 0x82, 0x0d, 0xb0, 0xff, 0xa3, 0x18, 0xac,
  0x1d, 0x18, 0x21, 0xab, 0x0e, 0x2e, 0x45, 0xcd, 0xde, 0xa9, 0x60, 0xd0,
  0xe0, 0x19, 0xb2, 0x0b, 0x02, 0x1f, 0xbc, 0x23, 0x20, 0xe4, 0x2b, 0x01,
  0xfb, 0x09, 0x0f, 0x20, 0x31, 0x01, 0x41, 0x14, 0x09, 0x00, 0x2a, 0xee,
  0xe9, 0xf7, 0xe0, 0xec, 0x24, 0x0b, 0x20, 0x2c, 0xc3, 0x14, 0x24, 0xee,
  0x24, 0xf4, 0x06, 0x1c, 0x11, 0x37, 0x07, 0xe2, 0x2a, 0xf3, 0xf6, 0xd6,
  0x28, 0x05, 0x01, 0xb5, 0x09, 0x81, 0x27, 0x02, 0xd1, 0xe4, 0x10, 0x08,
  0xe8, 0xda, 0x2e, 0x10, 0x19, 0x0a, 0xa1, 0x2e, 0x0b, 0x0b, 0x3a, 0x1d,
  0x04, 0xe7, 0xfd, 0x09, 0xb8, 0x07, 0x1e, 0xf7, 0x2c, 0x6c, 0x34, 0xf6,
  0xf1, 0xe5, 0xd8, 0x2e, 0x6b, 0xd9, 0x07, 0x24, 0xd6, 0x97, 0x13, 0xf6,
  0x29, 0xc9, 0x0d, 0x20, 0xf7, 0x02, 0xe5, 0x8f, 0xf9, 0x81, 0x01, 0x34,
  0x8e, 0x06, 0x30, 0x03, 0xe9, 0xf0, 0x18, 0x0c, 0xe5, 0xf3, 0x19, 0xfe,
  0x00, 0xd8, 0x1b, 0xfb, 0xa8, 0x0f, 0xe0, 0xef, 0x17, 0xda, 0xaa, 0x08,
  0x1f, 0xec, 0xd1, 0x33, 0xf6, 0x8c, 0x10, 0xab, 0xb5, 0xed, 0xf8, 0x06,
  0x59, 0x75, 0x15, 0xe4, 0xfb, 0xd2, 0x81, 0xf7, 0x40, 0xd7, 0x1d, 0x1b,
  0xc5, 0xb8, 0x27, 0x04, 0x0d, 0x3a, 0x1a, 0x10, 0x04, 0x13, 0x0a, 0xbd,
  0x1a, 0xd0, 0xef, 0x19, 0x01, 0xec, 0x23, 0x22, 0x37, 0xeb, 0x27, 0xf7,
  0x03, 0xeb, 0xf4, 0x2d, 0x4f, 0xe1, 0x28, 0x59, 0x09, 0x45, 0xf9, 0xce,
  0x0f, 0xe1, 0xcb, 0xfd, 0xe2, 0x04, 0x1a, 0xc7, 0xf5, 0xe4, 0xf2, 0x00,
  0x3b, 0x19, 0xe4, 0xec, 0xe9, 0xce, 0xe6, 0xd8, 0x1a, 0xcc, 0x19, 0x08,
  0xe9, 0x02, 0x89, 0xd2, 0xda, 0x1e, 0x13, 0xcd, 0x2a, 0xfc, 0x0a, 0xf1,
  0xd4, 0xf5, 0x0d, 0xe7, 0xcd, 0x08, 0xea, 0x11, 0x33, 0x13, 0xfb, 0xa2,
  0x13, 0x81, 0xef, 0xd4, 0xf6, 0x0e, 0x1b, 0xd4, 0xfc, 0xf3, 0x14, 0xed,
  0xf2, 0xfb, 0x1c, 0xfe, 0xd5, 0x62, 0xf5, 0x37, 0x59, 0xd1, 0xd5, 0xef,
  0x0c, 0x00, 0xd6, 0x45, 0x14, 0xfa, 0xed, 0x10, 0xe9, 0x40, 0x12, 0x44,
  0x10, 0x3e, 0xeb, 0x26, 0x06, 0xcf, 0xed, 0x34, 0xdf, 0x37, 0xf7, 0xe5,
  0x10, 0x14, 0xf9, 0xb3, 0x18, 0xf2, 0x2b, 0x14, 0x7f, 0xf0, 0x01, 0xb4,
  0x0e, 0xf6, 0x1a, 0xe1, 0xf1, 0xdc, 0x11, 0xde, 0xf9, 0xf8, 0x37, 0xfb,
  0xc2, 0x10, 0x25, 0xe4, 0xfb, 0xe4, 0xf2, 0xcb, 0x95, 0xfe, 0xcf, 0xf1,
  0xc0, 0x3d, 0xf4, 0x39, 0xfe, 0x02, 0xfb, 0xda, 0xc0, 0x9b, 0xed, 0xf6,
  0x12, 0xfb, 0x50, 0xfa, 0x26, 0x09, 0x13, 0x04, 0xe1, 0xe5, 0x81, 0xae,
  0xe8, 0xfa, 0x1c, 0x1b, 0x15, 0xd3, 0x00, 0xea, 0xfd, 0xcf, 0x05, 0x0a,
  0xcd, 0x43, 0x09, 0xfe, 0x0b, 0x04, 0xf2, 0xfb, 0x1c, 0xef, 0x08, 0xef,
  0x14, 0x07, 0x48, 0xc9, 0xbe, 0x1f, 0xca, 0xe2, 0xd1, 0xfb, 0x24, 0x15,
  0xfd, 0xc4, 0x2f, 0xff, 0x14, 0x3d, 0x09, 0x1c, 0x0d, 0xf4, 0x3d, 0x28,
  0xfa, 0xf9, 0xf1, 0xec, 0x2a, 0xfd, 0x49, 0xe2, 0x10, 0xdf, 0xd1, 0x07,
  0xe5, 0x19, 0xa3, 0xc6, 0xe8, 0x0c, 0xcf, 0x39, 0x07, 0xf0, 0xcc, 0x0b,
  0xee, 0x93, 0x1f, 0xd5, 0x7f, 0x27, 0xf2, 0xcd, 0x09, 0x14, 0xda, 0xea,
  0xec, 0xee, 0x1d, 0xdf, 0x15, 0x17, 0x0f, 0xf0, 0xaa, 0xff, 0x0b, 0xec,
  0x25, 0x26, 0xd1, 0x10, 0xd7, 0x52, 0x0c, 0xf1, 0xcd, 0x3d, 0x04, 0x7f,
  0x4a, 0xc9, 0xf0, 0x69, 0xbe, 0xf1, 0x98, 0xaf, 0x87, 0x1a, 0x95, 0x02,
  0xd9, 0x52, 0x19, 0xc0, 0x4f, 0xd7, 0x0f, 0x28, 0xd6, 0x08, 0xf5, 0xda,
  0xed, 0xbd, 0x0a, 0x02, 0x00, 0xe6, 0xc1, 0x92, 0x15, 0xb6, 0x3c, 0xd5,
  0x26, 0x5f, 0x2a, 0x32, 0x13, 0x1f, 0x15, 0x15, 0xa4, 0xfd, 0xe0, 0x1a,
  0x0d, 0x5a, 0x0b, 0x08, 0xf9, 0x20, 0x82, 0xb5, 0x14, 0xae, 0xb8, 0x10,
  0x18, 0x58, 0x69, 0x2d, 0xe4, 0xac, 0x05, 0x07, 0xb5, 0x0c, 0xe8, 0xf0,
  0x41, 0x4c, 0x1c, 0xb9, 0x1f, 0x1c, 0x8a, 0x38, 0x20, 0xf9, 0x20, 0xf8,
  0x93, 0xac, 0x2b, 0x2e, 0x0d, 0x45, 0xcf, 0x46, 0xf2, 0x18, 0xf5, 0xb1,
  0xf7, 0xf1, 0xc0, 0xb4, 0xb0, 0x25, 0x4f, 0x22, 0x1e, 0xfe, 0x1e, 0xdf,
  0xa1, 0xda, 0xfc, 0x59, 0x7a, 0xc4, 0x6a, 0x1d, 0xca, 0x7f, 0xa2, 0xc2,
  0x24, 0xc6, 0xa3, 0x26, 0x22, 0x26, 0xeb, 0xf8, 0xfa, 0x84, 0x09, 0x81,
  0x16, 0x2f, 0xec, 0x21, 0xf8, 0x69, 0xd4, 0xe3, 0xe9, 0xe8, 0x23, 0xfb,
  0x56, 0xba, 0x1f, 0x29, 0xc4, 0xd4, 0x75, 0x11, 0x2c, 0x10, 0x15, 0x06,
  0xf9, 0x36, 0xf4, 0xed, 0xcf, 0x09, 0xf4, 0x48, 0xe9, 0xe3, 0x9a, 0xce,
  0x5d, 0x2c, 0x44, 0xd7, 0x21, 0x92, 0x47, 0x70, 0x52, 0xfe, 0x3d, 0x1d,
  0x62, 0xc8, 0xf5, 0xe3, 0xdb, 0x07, 0x0f, 0x0b, 0xe8, 0x19, 0x1f, 0xf8,
  0x1c, 0x28, 0x3d, 0x1d, 0xb4, 0x10, 0x50, 0xf7, 0xeb, 0x13, 0x0c, 0x15,
  0xbf, 0xda, 0xfd, 0x01, 0xd8, 0xcf, 0xfe, 0xe3, 0xd6, 0x22, 0xca, 0x28,
  0x2f, 0xa1, 0x17, 0x0a, 0x01, 0xe7, 0xf9, 0xce, 0xa1, 0xef, 0xd8, 0xf7,
  0xf8, 0x29, 0x0c, 0x5b, 0xf4, 0x0d, 0xd5, 0x40, 0xbb, 0x00, 0x81, 0x1b,
  0x38, 0x28, 0x8d, 0xb2, 0x9b, 0x3d, 0xc4, 0x0c, 0xf3, 0x3e, 0xd0, 0xfd,
  0x24, 0x6c, 0x5d, 0xfb, 0x46, 0xf3, 0x50, 0x12, 0xf6, 0x2a, 0x17, 0xe4,
  0xcf, 0x13, 0xf0, 0x95, 0x81, 0xe4, 0xd1, 0x0f, 0x19, 0xec, 0xe3, 0x26,
  0xf5, 0x16, 0x1a, 0x2a, 0x40, 0xfc, 0xc8, 0xa4, 0xf4, 0xf7, 0xf4, 0xae,
  0x19, 0xa8, 0xe4, 0x3c, 0xea, 0x2d, 0x2d, 0x30, 0xab, 0xe0, 0x86, 0x3d,
  0x17, 0x00, 0x8b, 0x02, 0x46, 0x66, 0xec, 0x03, 0xce, 0xd2, 0xbe, 0x4a,
  0xd4, 0xf9, 0xe3, 0xce, 0xe0, 0xe1, 0x2d, 0x1a, 0x09, 0x2d, 0x1c, 0x2c,
  0x0a, 0xb4, 0xf9, 0xfb, 0xf4, 0xc2, 0xda, 0x29, 0x34, 0x1c, 0xed, 0x13,
  0xee, 0x41, 0xe9, 0x04, 0x2a, 0x11, 0xe5, 0x06, 0x20, 0x0f, 0x0a, 0xea,
  0x03, 0xd2, 0x1d, 0x08, 0xf8, 0x0a, 0xff, 0x96, 0xff, 0x03, 0xf8, 0x08,
  0xb6, 0x29, 0xd1, 0x2e, 0xc6, 0x20, 0xce, 0xd2, 0xd5, 0xfb, 0x81, 0xf4,
  0x17, 0x02, 0x17, 0xdb, 0x0d, 0x26, 0x0f, 0xda, 0xe4, 0xef, 0xfd, 0x1d,
  0x47, 0xef, 0x0a, 0x20, 0x08, 0x9c, 0x0d, 0x29, 0x01, 0xf6, 0x3d, 0xfe,
  0x0c, 0x3a, 0xd9, 0x03, 0xf1, 0x22, 0xde, 0xfd, 0xf0, 0xc8, 0x09, 0x7f,
  0xc6, 0x9c, 0x74, 0xe4, 0x5d, 0x07, 0x4d, 0x41, 0xe8, 0x2a, 0x9c, 0x12,
  0x57, 0xe1, 0xb4, 0xe0, 0x31, 0xe4, 0x33, 0xeb, 0xe3, 0x94, 0x33, 0xb9,
  0x21, 0x8a, 0xfa, 0xf3, 0x0b, 0xe1, 0xf9, 0xf0, 0xb7, 0xdb, 0x0c, 0xf1,
  0xaa, 0x1c, 0xec, 0x1e, 0x06, 0x2c, 0x39, 0x18, 0xbc, 0xb7, 0x22, 0x1f,
  0xf3, 0xde, 0x44, 0xcd, 0x3a, 0x0e, 0xf7, 0x18, 0xdf, 0x2d, 0x81, 0xdb,
  0x14, 0xbe, 0x1f, 0x4f, 0xe8, 0xc3, 0x40, 0x17, 0x3d, 0xb0, 0x15, 0x12,
  0xe2, 0xf4, 0xc0, 0xe3, 0x3c, 0xe9, 0xf5, 0x25, 0x08, 0x01, 0xfe, 0x08,
  0x05, 0xf7, 0xf8, 0xd6, 0xd2, 0xef, 0xef, 0xe2, 0x1a, 0x03, 0x0b, 0xe8,
  0xbb, 0x18, 0xc1, 0xd1, 0x13, 0x03, 0xe5, 0x30, 0x06, 0xc4, 0x2a, 0x18,
  0xfe, 0xb2, 0x1a, 0x16, 0x0c, 0x1a, 0x4a, 0xdd, 0x19, 0x21, 0xde, 0x40,
  0xea, 0x16, 0xe7, 0xc3, 0xf4, 0xf1, 0x42, 0x46, 0x00, 0xb6, 0x4a, 0x05,
  0x44, 0x1f, 0x04, 0x1f, 0x17, 0x39, 0xaf, 0xd4, 0x51, 0xde, 0xcd, 0x21,
  0x1e, 0xf3, 0x13, 0x81, 0x37, 0xe1, 0x14, 0x39, 0x0f, 0xd9, 0x02, 0xff,
  0xfe, 0xb3, 0x3d, 0xab, 0xac, 0xf4, 0xe9, 0x14, 0xcf, 0x37, 0x1d, 0x1f,
  0xe2, 0x1d, 0x4c, 0x65, 0xf5, 0xf3, 0x07, 0xfc, 0x81, 0xc3, 0xfd, 0xc2,
  0xa1, 0xee, 0xe2, 0x02, 0x00, 0x29, 0xdc, 0x01, 0x40, 0x14, 0xca, 0xf9,
  0xef, 0xbf, 0xfb, 0xe2, 0x4f, 0x06, 0x0b, 0x10, 0xc5, 0x07, 0xbd, 0x95,
  0x1e, 0x3c, 0x4c, 0x0b, 0xea, 0xfd, 0x95, 0x17, 0xc0, 0x33, 0x13, 0xb1,
  0xf3, 0x23, 0x25, 0xe3, 0x0e, 0x28, 0x2b, 0x01, 0x81, 0xb9, 0x12, 0xce,
  0xa4, 0x23, 0xe6, 0xe2, 0x09, 0x2e, 0xef, 0x06, 0xb3, 0x97, 0x36, 0x14,
  0xf9, 0xab, 0x25, 0xb7, 0x11, 0x0c, 0x16, 0xf0, 0x0e, 0x02, 0x81, 0xc4,
  0x13, 0x91, 0x17, 0x4d, 0xdd, 0xd1, 0x28, 0x5a, 0xb6, 0x9b, 0x02, 0x0c,
  0xa5, 0xf9, 0xe3, 0xf4, 0x24, 0xfb, 0xb3, 0x43, 0x0e, 0x22, 0x13, 0x0f,
  0x17, 0xf8, 0xe8, 0xe5, 0xe3, 0xfe, 0x04, 0xbe, 0x0b, 0xfd, 0x13, 0x11,
  0xcc, 0xdd, 0x00, 0xeb, 0xec, 0x02, 0x1f, 0x0f, 0xe7, 0x0a, 0x3a, 0x34,
  0x0c, 0xf0, 0x13, 0xf3, 0xd9, 0xc6, 0xff, 0x11, 0xe1, 0xd1, 0xd4, 0xf9,
  0xd4, 0x33, 0x02, 0xd7, 0x0f, 0xde, 0xdc, 0x01, 0x13, 0xbe, 0x0f, 0x2b,
  0x3e, 0xe6, 0x0f, 0xea, 0xe4, 0x0e, 0x16, 0x81, 0xec, 0x11, 0x03, 0x18,
  0xe3, 0x15, 0x02, 0x0e, 0xd3, 0x08, 0x1f, 0xf2, 0xe9, 0x0c, 0x08, 0x0c,
  0xd0, 0x05, 0x22, 0xf4, 0xfe, 0xfd, 0x38, 0x99, 0xeb, 0x15, 0x19, 0x1b,
  0x0c, 0x17, 0x2b, 0x67, 0xc5, 0x30, 0xa9, 0xef, 0xe0, 0x1c, 0xd9, 0xe8,
  0xa9, 0xee, 0x21, 0x08, 0x0d, 0xf7, 0xfb, 0x0e, 0x08, 0xc5, 0xe1, 0x0e,
  0x10, 0x81, 0xf4, 0x89, 0x1e, 0xec, 0xf6, 0xba, 0x09, 0x1f, 0xea, 0xd7,
  0xe8, 0x2d, 0x27, 0xe6, 0x06, 0x12, 0x14, 0x32, 0xea, 0x19, 0xf6, 0x0f,
  0xf8, 0x61, 0x02, 0xe3, 0x2e, 0x32, 0x1b, 0x1c, 0xd5, 0xa0, 0xb8, 0xe4,
  0x18, 0x32, 0x0c, 0x22, 0x2b, 0xea, 0x05, 0x1d, 0x63, 0x2d, 0xa5, 0xd4,
  0xf5, 0x15, 0x08, 0xd3, 0x1c, 0xf3, 0xe6, 0xe8, 0xbd, 0xa0, 0xb1, 0x20,
  0x19, 0x38, 0x45, 0x02, 0xfe, 0x8a, 0xc9, 0x81, 0xa7, 0x1c, 0x08, 0x1d,
  0xfc, 0x12, 0xbc, 0x95, 0x18, 0x2c, 0xc9, 0xb9, 0x19, 0x8d, 0x23, 0xb3,
  0xcf, 0x13, 0xf9, 0xe5, 0xf6, 0xd3, 0x1a, 0xef, 0x26, 0x11, 0x14, 0x00,
  0x06, 0xf6, 0xec, 0xe8, 0xf6, 0xcb, 0x1e, 0xf6, 0x3a, 0xf1, 0x2a, 0x20,
  0x1d, 0xd9, 0x02, 0x14, 0x27, 0x04, 0x1e, 0xff, 0xfa, 0x06, 0xd0, 0xfb,
  0xea, 0x0f, 0xff, 0xf9, 0x03, 0xe5, 0xfb, 0x7f, 0xe7, 0x06, 0x3d, 0xee,
  0x1c, 0x05, 0x46, 0x2a, 0xe3, 0x09, 0x08, 0x0e, 0x6d, 0xde, 0xbc, 0xfa,
  0x34, 0x0d, 0x49, 0x04, 0x00, 0x9a, 0x15, 0x18, 0xf4, 0xb0, 0x2c, 0xe2,
  0x04, 0xda, 0x24, 0x05, 0x88, 0xfb, 0xfd, 0x15, 0xfa, 0xcf, 0x22, 0xec,
  0xef, 0x7f, 0xf4, 0x4d, 0x20, 0xcb, 0xfd, 0x02, 0xfd, 0xf7, 0x5c, 0x2d,
  0x12, 0xd4, 0xc9, 0x19, 0xeb, 0x66, 0xd1, 0xc8, 0x40, 0x67, 0xc2, 0xf9,
  0xe6, 0x1c, 0xb9, 0x13, 0x20, 0x9c, 0x48, 0xe7, 0x4c, 0xfc, 0xec, 0xf9,
  0x17, 0xef, 0x00, 0x2c, 0x96, 0x17, 0x1f, 0x06, 0x2c, 0x4c, 0xe5, 0xce,
  0x98, 0xdd, 0xea, 0xe2, 0xf8, 0x23, 0x08, 0x02, 0x43, 0x3b, 0xf5, 0x01,
  0x42, 0xfe, 0xa7, 0xec, 0xb9, 0x1c, 0x81, 0xf5, 0xf9, 0x08, 0x23, 0xd5,
  0xf6, 0x2e, 0xc7, 0x0e, 0x3e, 0xf4, 0x08, 0x19, 0x24, 0x1e, 0x1b, 0x2e,
  0xe4, 0x13, 0x10, 0xe0, 0xfd, 0x20, 0x0a, 0xde, 0xf8, 0xf7, 0xeb, 0xd2,
  0x53, 0xf0, 0x2a, 0x0d, 0xec, 0xd6, 0xfc, 0xd8, 0x36, 0xd8, 0xc2, 0xc8,
  0xfe, 0x44, 0x37, 0x2d, 0x2e, 0x3f, 0xd4, 0xd5, 0x20, 0x1c, 0x1a, 0x02,
  0xa0, 0x1e, 0xe6, 0x08, 0x14, 0x81, 0xf2, 0xde, 0xe1, 0x55, 0x2d, 0xf6,
  0x01, 0xec, 0x0f, 0x49, 0x3a, 0xe1, 0x23, 0x27, 0xfa, 0xe3, 0xf2, 0x11,
  0xb5, 0x05, 0xff, 0x05, 0x36, 0xf4, 0x01, 0x2e, 0x12, 0x24, 0xcb, 0x00,
  0xf8, 0x8c, 0x07, 0x35, 0xd5, 0x0d, 0xe1, 0x00, 0x1b, 0x08, 0x45, 0x07,
  0xb1, 0x51, 0x46, 0x4c, 0xdc, 0xf0, 0x34, 0x0c, 0xcc, 0xec, 0xbb, 0xbe,
  0xcc, 0x4c, 0x20, 0x1e, 0xf1, 0xd6, 0xfd, 0x9c, 0xe4, 0xe3, 0x3b, 0x0a,
  0xc8, 0x1b, 0xe8, 0x11, 0x08, 0xc5, 0xfb, 0xda, 0xf6, 0xdf, 0x07, 0x46,
  0x34, 0xf7, 0x10, 0xcc, 0xf7, 0x5e, 0x03, 0x02, 0xea, 0x05, 0xe7, 0xc8,
  0xeb, 0x26, 0xee, 0x15, 0xf2, 0x8b, 0x26, 0xf1, 0xf3, 0x12, 0x2b, 0x0e,
  0xd2, 0xf7, 0xd1, 0x22, 0xd8, 0x0f, 0xeb, 0x02, 0xcf, 0x11, 0x1d, 0x08,
  0x08, 0x0f, 0x81, 0xd6, 0xcd, 0xf4, 0x31, 0x0d, 0x5e, 0xfc, 0xff, 0xff,
  0x04, 0x00, 0x00, 0x00, 0x00, 0x01, 0x00, 0x00, 0xbc, 0xf4, 0xff, 0xff,
  0xef, 0xfc, 0xff, 0xff, 0xd9, 0xf9, 0xff, 0xff, 0xed, 0xf3, 0xff, 0xff,
  0x9a, 0xf1, 0xff, 0xff, 0xdb, 0xf2, 0xff, 0xff, 0xa9, 0xff, 0xff, 0xff,
  0x49, 0xf8, 0xff, 0xff, 0x39, 0xf8, 0xff, 0xff, 0x58, 0xfa, 0xff, 0xff,
  0x50, 0xfb, 0xff, 0xff, 0xdd, 0xf2, 0xff, 0xff, 0x4f, 0xfa, 0xff, 0xff,
  0xcb, 0xf3, 0xff, 0xff, 0xa0, 0xff, 0xff, 0xff, 0x75, 0xef, 0xff, 0xff,
  0x07, 0xfd, 0xff, 0xff, 0x3f, 0xfd, 0xff, 0xff, 0x2c, 0xfe, 0xff, 0xff,
  0xa4, 0x00, 0x00, 0x00, 0x00, 0x07, 0x00, 0x00, 0xa5, 0xf9, 0xff, 0xff,
  0x89, 0xf8, 0xff, 0xff, 0x94, 0x07, 0x00, 0x00, 0x60, 0xf9, 0xff, 0xff,
  0xd8, 0xfb, 0xff, 0xff, 0x36, 0xfb, 0xff, 0xff, 0x21, 0xff, 0xff, 0xff,
  0xb6, 0xec, 0xff, 0xff, 0xd8, 0xf0, 0xff, 0xff, 0x20, 0xf7, 0xff, 0xff,
  0x98, 0xf9, 0xff, 0xff, 0x32, 0x04, 0x00, 0x00, 0x88, 0x01, 0x00, 0x00,
  0xcf, 0xf6, 0xff, 0xff, 0x02, 0xfd, 0xff, 0xff, 0xc0, 0xf9, 0xff, 0xff,
  0x59, 0x01, 0x00, 0x00, 0x67, 0xfd, 0xff, 0xff, 0x1c, 0xff, 0xff, 0xff,
  0xc1, 0xf8, 0xff, 0xff, 0x98, 0xf0, 0xff, 0xff, 0x90, 0xf2, 0xff, 0xff,
  0x81, 0xfe, 0xff, 0xff, 0x3f, 0x00, 0x00, 0x00, 0x75, 0xf2, 0xff, 0xff,
  0x37, 0xf5, 0xff, 0xff, 0xab, 0x01, 0x00, 0x00, 0xa9, 0xf7, 0xff, 0xff,
  0xc7, 0xf1, 0xff, 0xff, 0x96, 0xf8, 0xff, 0xff, 0xf1, 0xf6, 0xff, 0xff,
  0x02, 0xfa, 0xff, 0xff, 0x62, 0xf6, 0xff, 0xff, 0x79, 0xf7, 0xff, 0xff,
  0x20, 0xfc, 0xff, 0xff, 0xe0, 0xfc, 0xff, 0xff, 0xdf, 0xfc, 0xff, 0xff,
  0xb7, 0xf4, 0xff, 0xff, 0x12, 0xfd, 0xff, 0xff, 0x73, 0xfe, 0xff, 0xff,
  0x84, 0xfb, 0xff, 0xff, 0xf8, 0xf1, 0xff, 0xff, 0xe7, 0xfb, 0xff, 0xff,
  0x6a, 0xfd, 0xff, 0xff, 0x04, 0x00, 0x00, 0x00, 0x00, 0x01, 0x00, 0x00,
  0x1d, 0x1f, 0x0b, 0x1a, 0xea, 0x1e, 0xb2, 0x1b, 0x2f, 0x11, 0xd1, 0x00,
  0x1c, 0x2e, 0xfe, 0x10, 0x1f, 0x0c, 0x19, 0x1b, 0xb8, 0x17, 0xc4, 0xc2,
  0xce, 0x13, 0x9e, 0x93, 0x07, 0x1f, 0x21, 0x49, 0xbb, 0xb2, 0xb1, 0x1b,
  0x24, 0x18, 0x15, 0xd5, 0xcd, 0x7f, 0x26, 0x02, 0x1f, 0x1c, 0xdf, 0x04,
  0xad, 0x27, 0x0c, 0xea, 0xc9, 0x18, 0x04, 0xa5, 0xde, 0x18, 0x60, 0x01,
  0x12, 0x1b, 0x24, 0xa2, 0xc5, 0xf7, 0xd6, 0x15, 0x2a, 0xf4, 0x13, 0x27,
  0x2d, 0x1d, 0xf4, 0x21, 0xf1, 0xe3, 0xfc, 0x0c, 0x8d, 0xf7, 0x19, 0xdc,
  0xf4, 0xa8, 0x16, 0x0b, 0x31, 0x15, 0x0d, 0x15, 0xd3, 0x81, 0x11, 0x1e,
  0x0f, 0x0b, 0x18, 0x0f, 0x92, 0xdf, 0xca, 0x1b, 0x0f, 0x87, 0xa6, 0xd3,
  0x81, 0x11, 0x19, 0xff, 0x09, 0x1e, 0xe1, 0xce, 0xf8, 0xca, 0x0b, 0xfa,
  0x17, 0x15, 0xdd, 0xf6, 0xbf, 0x07, 0xbc, 0x0e, 0x11, 0x11, 0xc2, 0xd4,
  0xe3, 0x0b, 0x13, 0xe0, 0xcd, 0xc9, 0x0b, 0xe0, 0xae, 0x0b, 0xfd, 0xdf,
  0x81, 0x0d, 0xc3, 0x1b, 0xf9, 0xba, 0x17, 0x10, 0xc7, 0xa9, 0x11, 0x15,
  0x13, 0xd5, 0xb2, 0xcf, 0x0f, 0x0c, 0xe8, 0xac, 0xde, 0x88, 0x15, 0x20,
  0x13, 0x02, 0xcc, 0x1a, 0xaf, 0xd1, 0x1b, 0x04, 0xe3, 0xd1, 0xd0, 0x07,
  0x16, 0x14, 0xc5, 0x0d, 0xe8, 0xc1, 0xd4, 0x14, 0xa7, 0xd8, 0xed, 0xf8,
  0xfb, 0x99, 0x0e, 0xe9, 0xf4, 0xe4, 0xe7, 0xb3, 0xb8, 0xec, 0x21, 0x9f,
  0x03, 0xed, 0x81, 0xbc, 0x1a, 0x9d, 0xef, 0xf2, 0xf8, 0x0f, 0xae, 0x11,
  0x09, 0x11, 0x04, 0xdd, 0x00, 0x19, 0xfe, 0xa2, 0x17, 0x0f, 0xd8, 0x14,
  0x17, 0x17, 0x09, 0xa3, 0x8b, 0xb5, 0x0b, 0x1f, 0x17, 0xcc, 0x8c, 0x8a,
  0x02, 0x00, 0x1a, 0x03, 0x21, 0x0a, 0x04, 0x14, 0x0d, 0x18, 0xbe, 0x17,
  0x0d, 0xe7, 0x19, 0x10, 0x76, 0xfe, 0xff, 0xff, 0x04, 0x00, 0x00, 0x00,
  0x10, 0x00, 0x00, 0x00, 0x72, 0x02, 0x00, 0x00, 0x77, 0xfb, 0xff, 0xff,
  0xd0, 0x03, 0x00, 0x00, 0x6c, 0xfe, 0xff, 0xff, 0x92, 0xfe, 0xff, 0xff,
  0x04, 0x00, 0x00, 0x00, 0x0c, 0x00, 0x00, 0x00, 0xff, 0xff, 0xff, 0xff,
  0x19, 0x00, 0x00, 0x00, 0x40, 0x00, 0x00, 0x00, 0xaa, 0xfe, 0xff, 0xff,
  0x04, 0x00, 0x00, 0x00, 0x0c, 0x00, 0x00, 0x00, 0xff, 0xff, 0xff, 0xff,
  0x32, 0x00, 0x00, 0x00, 0x40, 0x00, 0x00, 0x00, 0xc2, 0xfe, 0xff, 0xff,
  0x04, 0x00, 0x00, 0x00, 0x0c, 0x00, 0x00, 0x00, 0xff, 0xff, 0xff, 0xff,
  0x32, 0x00, 0x00, 0x00, 0x20, 0x00, 0x00, 0x00, 0xda, 0xfe, 0xff, 0xff,
  0x04, 0x00, 0x00, 0x00, 0x04, 0x00, 0x00, 0x00, 0x01, 0x00, 0x00, 0x00,
  0xea, 0xfe, 0xff, 0xff, 0x04, 0x00, 0x00, 0x00, 0x0c, 0x00, 0x00, 0x00,
  0xff, 0xff, 0xff, 0xff, 0x64, 0x00, 0x00, 0x00, 0x20, 0x00, 0x00, 0x00,
  0x02, 0xff, 0xff, 0xff, 0x04, 0x00, 0x00, 0x00, 0x04, 0x00, 0x00, 0x00,
  0xfd, 0xff, 0xff, 0xff, 0x28, 0xce, 0xff, 0xff, 0x2c, 0xce, 0xff, 0xff,
  0x0f, 0x00, 0x00, 0x00, 0x4d, 0x4c, 0x49, 0x52, 0x20, 0x43, 0x6f, 0x6e,
  0x76, 0x65, 0x72, 0x74, 0x65, 0x64, 0x2e, 0x00, 0x01, 0x00, 0x00, 0x00,
  0x14, 0x00, 0x00, 0x00, 0x00, 0x00, 0x0e, 0x00, 0x18, 0x00, 0x14, 0x00,
  0x10, 0x00, 0x0c, 0x00, 0x08, 0x00, 0x04, 0x00, 0x0e, 0x00, 0x00, 0x00,
  0x14, 0x00, 0x00, 0x00, 0x1c, 0x00, 0x00, 0x00, 0xf0, 0x04, 0x00, 0x00,
  0xf4, 0x04, 0x00, 0x00, 0xf8, 0x04, 0x00, 0x00, 0x04, 0x00, 0x00, 0x00,
  0x6d, 0x61, 0x69, 0x6e, 0x00, 0x00, 0x00, 0x00, 0x16, 0x00, 0x00, 0x00,
  0xb8, 0x04, 0x00, 0x00, 0x78, 0x04, 0x00, 0x00, 0x18, 0x04, 0x00, 0x00,
  0xe4, 0x03, 0x00, 0x00, 0xb0, 0x03, 0x00, 0x00, 0x88, 0x03, 0x00, 0x00,
  0x48, 0x03, 0x00, 0x00, 0xf4, 0x02, 0x00, 0x00, 0xbc, 0x02, 0x00, 0x00,
  0x88, 0x02, 0x00, 0x00, 0x44, 0x02, 0x00, 0x00, 0x10, 0x02, 0x00, 0x00,
  0xdc, 0x01, 0x00, 0x00, 0xb4, 0x01, 0x00, 0x00, 0x80, 0x01, 0x00, 0x00,
  0x3c, 0x01, 0x00, 0x00, 0x14, 0x01, 0x00, 0x00, 0xe0, 0x00, 0x00, 0x00,
  0x9c, 0x00, 0x00, 0x00, 0x64, 0x00, 0x00, 0x00, 0x28, 0x00, 0x00, 0x00,
  0x04, 0x00, 0x00, 0x00, 0xc6, 0xfc, 0xff, 0xff, 0x0c, 0x00, 0x00, 0x00,
  0x10, 0x00, 0x00, 0x00, 0x0a, 0x00, 0x00, 0x00, 0x01, 0x00, 0x00, 0x00,
  0x28, 0x00, 0x00, 0x00, 0x01, 0x00, 0x00, 0x00, 0x27, 0x00, 0x00, 0x00,
  0x76, 0xfd, 0xff, 0xff, 0x1c, 0x00, 0x00, 0x00, 0x00, 0x00, 0x00, 0x09,
  0x1c, 0x00, 0x00, 0x00, 0x20, 0x00, 0x00, 0x00, 0x09, 0x00, 0x00, 0x00,
  0x00, 0x00, 0x06, 0x00, 0x08, 0x00, 0x04, 0x00, 0x06, 0x00, 0x00, 0x00,
  0x00, 0x00, 0x80, 0x3f, 0x01, 0x00, 0x00, 0x00, 0x27, 0x00, 0x00, 0x00,
  0x01, 0x00, 0x00, 0x00, 0x26, 0x00, 0x00, 0x00, 0x42, 0xfc, 0xff, 0xff,
  0x14, 0x00, 0x00, 0x00, 0x00, 0x00, 0x00, 0x08, 0x10, 0x00, 0x00, 0x00,
  0x14, 0x00, 0x00, 0x00, 0x08, 0x00, 0x00, 0x00, 0x4c, 0xcf, 0xff, 0xff,
  0x01, 0x00, 0x00, 0x00, 0x26, 0x00, 0x00, 0x00, 0x03, 0x00, 0x00, 0x00,
  0x25, 0x00, 0x00, 0x00, 0x08, 0x00, 0x00, 0x00, 0x07, 0x00, 0x00, 0x00,
  0xe2, 0xfd, 0xff, 0xff, 0x1c, 0x00, 0x00, 0x00, 0x00, 0x00, 0x00, 0x08,
  0x1c, 0x00, 0x00, 0x00, 0x20, 0x00, 0x00, 0x00, 0x08, 0x00, 0x00, 0x00,
  0x00, 0x00, 0x06, 0x00, 0x08, 0x00, 0x07, 0x00, 0x06, 0x00, 0x00, 0x00,
  0x00, 0x00, 0x00, 0x01, 0x01, 0x00, 0x00, 0x00, 0x25, 0x00, 0x00, 0x00,
  0x03, 0x00, 0x00, 0x00, 0x24, 0x00, 0x00, 0x00, 0x0a, 0x00, 0x00, 0x00,
  0x09, 0x00, 0x00, 0x00, 0xb6, 0xfc, 0xff, 0xff, 0x14, 0x00, 0x00, 0x00,
  0x00, 0x00, 0x00, 0x1b, 0x10, 0x00, 0x00, 0x00, 0x14, 0x00, 0x00, 0x00,
  0x07, 0x00, 0x00, 0x00, 0xc0, 0xcf, 0xff, 0xff, 0x01, 0x00, 0x00, 0x00,
  0x24, 0x00, 0x00, 0x00, 0x02, 0x00, 0x00, 0x00, 0x23, 0x00, 0x00, 0x00,
  0x03, 0x00, 0x00, 0x00, 0xc2, 0xfd, 0xff, 0xff, 0x0c, 0x00, 0x00, 0x00,
  0x10, 0x00, 0x00, 0x00, 0x05, 0x00, 0x00, 0x00, 0x01, 0x00, 0x00, 0x00,
  0x23, 0x00, 0x00, 0x00, 0x02, 0x00, 0x00, 0x00, 0x22, 0x00, 0x00, 0x00,
  0x06, 0x00, 0x00, 0x00, 0x0a, 0xfd, 0xff, 0xff, 0x14, 0x00, 0x00, 0x00,
  0x00, 0x00, 0x00, 0x05, 0x24, 0x00, 0x00, 0x00, 0x28, 0x00, 0x00, 0x00,
  0x06, 0x00, 0x00, 0x00, 0x66, 0xfe, 0xff, 0xff, 0x01, 0x00, 0x00, 0x00,
  0x02, 0x00, 0x00, 0x00, 0x01, 0x00, 0x00, 0x00, 0x02, 0x00, 0x00, 0x00,
  0x00, 0x00, 0x00, 0x01, 0x01, 0x00, 0x00, 0x00, 0x22, 0x00, 0x00, 0x00,
  0x01, 0x00, 0x00, 0x00, 0x21, 0x00, 0x00, 0x00, 0x4a, 0xfd, 0xff, 0xff,
  0x14, 0x00, 0x00, 0x00, 0x00, 0x00, 0x00, 0x34, 0x10, 0x00, 0x00, 0x00,
  0x14, 0x00, 0x00, 0x00, 0x01, 0x00, 0x00, 0x00, 0x54, 0xd0, 0xff, 0xff,
  0x01, 0x00, 0x00, 0x00, 0x21, 0x00, 0x00, 0x00, 0x02, 0x00, 0x00, 0x00,
  0x20, 0x00, 0x00, 0x00, 0x03, 0x00, 0x00, 0x00, 0x56, 0xfe, 0xff, 0xff,
  0x0c, 0x00, 0x00, 0x00, 0x10, 0x00, 0x00, 0x00, 0x05, 0x00, 0x00, 0x00,
  0x01, 0x00, 0x00, 0x00, 0x20, 0x00, 0x00, 0x00, 0x02, 0x00, 0x00, 0x00,
  0x1f, 0x00, 0x00, 0x00, 0x05, 0x00, 0x00, 0x00, 0x9e, 0xfd, 0xff, 0xff,
  0x14, 0x00, 0x00, 0x00, 0x00, 0x00, 0x00, 0x0b, 0x10, 0x00, 0x00, 0x00,
  0x14, 0x00, 0x00, 0x00, 0x04, 0x00, 0x00, 0x00, 0xa8, 0xd0, 0xff, 0xff,
  0x01, 0x00, 0x00, 0x00, 0x1f, 0x00, 0x00, 0x00, 0x02, 0x00, 0x00, 0x00,
  0x1e, 0x00, 0x00, 0x00, 0x0b, 0x00, 0x00, 0x00, 0xce, 0xfd, 0xff, 0xff,
  0x14, 0x00, 0x00, 0x00, 0x00, 0x00, 0x00, 0x15, 0x10, 0x00, 0x00, 0x00,
  0x14, 0x00, 0x00, 0x00, 0x03, 0x00, 0x00, 0x00, 0xd8, 0xd0, 0xff, 0xff,
  0x01, 0x00, 0x00, 0x00, 0x1e, 0x00, 0x00, 0x00, 0x02, 0x00, 0x00, 0x00,
  0x1d, 0x00, 0x00, 0x00, 0x0c, 0x00, 0x00, 0x00, 0xfe, 0xfd, 0xff, 0xff,
  0x14, 0x00, 0x00, 0x00, 0x00, 0x00, 0x00, 0x01, 0x1c, 0x00, 0x00, 0x00,
  0x20, 0x00, 0x00, 0x00, 0x02, 0x00, 0x00, 0x00, 0x4c, 0xfe, 0xff, 0xff,
  0x00, 0x00, 0x00, 0x01, 0x01, 0x00, 0x00, 0x00, 0x01, 0x00, 0x00, 0x00,
  0x01, 0x00, 0x00, 0x00, 0x1d, 0x00, 0x00, 0x00, 0x03, 0x00, 0x00, 0x00,
  0x1c, 0x00, 0x00, 0x00, 0x0e, 0x00, 0x00, 0x00, 0x0d, 0x00, 0x00, 0x00,
  0x3e, 0xfe, 0xff, 0xff, 0x14, 0x00, 0x00, 0x00, 0x00, 0x00, 0x00, 0x34,
  0x10, 0x00, 0x00, 0x00, 0x14, 0x00, 0x00, 0x00, 0x01, 0x00, 0x00, 0x00,
  0x48, 0xd1, 0xff, 0xff, 0x01, 0x00, 0x00, 0x00, 0x1c, 0x00, 0x00, 0x00,
  0x02, 0x00, 0x00, 0x00, 0x1b, 0x00, 0x00, 0x00, 0x01, 0x00, 0x00, 0x00,
  0x4a, 0xff, 0xff, 0xff, 0x0c, 0x00, 0x00, 0x00, 0x10, 0x00, 0x00, 0x00,
  0x05, 0x00, 0x00, 0x00, 0x01, 0x00, 0x00, 0x00, 0x1b, 0x00, 0x00, 0x00,
  0x02, 0x00, 0x00, 0x00, 0x1a, 0x00, 0x00, 0x00, 0x04, 0x00, 0x00, 0x00,
  0x00, 0x00, 0x0e, 0x00, 0x1a, 0x00, 0x14, 0x00, 0x10, 0x00, 0x0c, 0x00,
  0x0b, 0x00, 0x04, 0x00, 0x0e, 0x00, 0x00, 0x00, 0x24, 0x00, 0x00, 0x00,
  0x00, 0x00, 0x00, 0x05, 0x34, 0x00, 0x00, 0x00, 0x38, 0x00, 0x00, 0x00,
  0x06, 0x00, 0x00, 0x00, 0x00, 0x00, 0x0e, 0x00, 0x18, 0x00, 0x17, 0x00,
  0x10, 0x00, 0x0c, 0x00, 0x08, 0x00, 0x04, 0x00, 0x0e, 0x00, 0x00, 0x00,
  0x01, 0x00, 0x00, 0x00, 0x02, 0x00, 0x00, 0x00, 0x01, 0x00, 0x00, 0x00,
  0x02, 0x00, 0x00, 0x00, 0x00, 0x00, 0x00, 0x01, 0x01, 0x00, 0x00, 0x00,
  0x1a, 0x00, 0x00, 0x00, 0x01, 0x00, 0x00, 0x00, 0x19, 0x00, 0x00, 0x00,
  0xf2, 0xfe, 0xff, 0xff, 0x14, 0x00, 0x00, 0x00, 0x00, 0x00, 0x00, 0x34,
  0x10, 0x00, 0x00, 0x00, 0x14, 0x00, 0x00, 0x00, 0x01, 0x00, 0x00, 0x00,
  0xfc, 0xd1, 0xff, 0xff, 0x01, 0x00, 0x00, 0x00, 0x19, 0x00, 0x00, 0x00,
  0x02, 0x00, 0x00, 0x00, 0x18, 0x00, 0x00, 0x00, 0x03, 0x00, 0x00, 0x00,
  0x00, 0x00, 0x0a, 0x00, 0x10, 0x00, 0x0c, 0x00, 0x08, 0x00, 0x04, 0x00,
  0x0a, 0x00, 0x00, 0x00, 0x0c, 0x00, 0x00, 0x00, 0x10, 0x00, 0x00, 0x00,
  0x05, 0x00, 0x00, 0x00, 0x01, 0x00, 0x00, 0x00, 0x18, 0x00, 0x00, 0x00,
  0x02, 0x00, 0x00, 0x00, 0x17, 0x00, 0x00, 0x00, 0x02, 0x00, 0x00, 0x00,
  0x52, 0xff, 0xff, 0xff, 0x14, 0x00, 0x00, 0x00, 0x00, 0x00, 0x00, 0x0b,
  0x10, 0x00, 0x00, 0x00, 0x14, 0x00, 0x00, 0x00, 0x04, 0x00, 0x00, 0x00,
  0x5c, 0xd2, 0xff, 0xff, 0x01, 0x00, 0x00, 0x00, 0x17, 0x00, 0x00, 0x00,
  0x02, 0x00, 0x00, 0x00, 0x16, 0x00, 0x00, 0x00, 0x0f, 0x00, 0x00, 0x00,
  0x82, 0xff, 0xff, 0xff, 0x14, 0x00, 0x00, 0x00, 0x00, 0x00, 0x00, 0x15,
  0x10, 0x00, 0x00, 0x00, 0x14, 0x00, 0x00, 0x00, 0x03, 0x00, 0x00, 0x00,
  0x8c, 0xd2, 0xff, 0xff, 0x01, 0x00, 0x00, 0x00, 0x16, 0x00, 0x00, 0x00,
  0x02, 0x00, 0x00, 0x00, 0x15, 0x00, 0x00, 0x00, 0x10, 0x00, 0x00, 0x00,
  0xb2, 0xff, 0xff, 0xff, 0x20, 0x00, 0x00, 0x00, 0x00, 0x00, 0x00, 0x01,
  0x28, 0x00, 0x00, 0x00, 0x2c, 0x00, 0x00, 0x00, 0x02, 0x00, 0x00, 0x00,
  0x0c, 0x00, 0x10, 0x00, 0x00, 0x00, 0x0c, 0x00, 0x08, 0x00, 0x07, 0x00,
  0x0c, 0x00, 0x00, 0x00, 0x00, 0x00, 0x00, 0x01, 0x01, 0x00, 0x00, 0x00,
  0x01, 0x00, 0x00, 0x00, 0x01, 0x00, 0x00, 0x00, 0x15, 0x00, 0x00, 0x00,
  0x03, 0x00, 0x00, 0x00, 0x14, 0x00, 0x00, 0x00, 0x12, 0x00, 0x00, 0x00,
  0x11, 0x00, 0x00, 0x00, 0x00, 0x00, 0x0e, 0x00, 0x18, 0x00, 0x14, 0x00,
  0x10, 0x00, 0x0c, 0x00, 0x0b, 0x00, 0x04, 0x00, 0x0e, 0x00, 0x00, 0x00,
  0x14, 0x00, 0x00, 0x00, 0x00, 0x00, 0x00, 0x34, 0x10, 0x00, 0x00, 0x00,
  0x14, 0x00, 0x00, 0x00, 0x01, 0x00, 0x00, 0x00, 0x18, 0xd3, 0xff, 0xff,
  0x01, 0x00, 0x00, 0x00, 0x14, 0x00, 0x00, 0x00, 0x02, 0x00, 0x00, 0x00,
  0x13, 0x00, 0x00, 0x00, 0x01, 0x00, 0x00, 0x00, 0x00, 0x00, 0x0a, 0x00,
  0x0c, 0x00, 0x00, 0x00, 0x08, 0x00, 0x04, 0x00, 0x0a, 0x00, 0x00, 0x00,
  0x08, 0x00, 0x00, 0x00, 0x0c, 0x00, 0x00, 0x00, 0x01, 0x00, 0x00, 0x00,
  0x13, 0x00, 0x00, 0x00, 0x01, 0x00, 0x00, 0x00, 0x00, 0x00, 0x00, 0x00,
  0x01, 0x00, 0x00, 0x00, 0x28, 0x00, 0x00, 0x00, 0x01, 0x00, 0x00, 0x00,
  0x00, 0x00, 0x00, 0x00, 0x29, 0x00, 0x00, 0x00, 0x68, 0x2c, 0x00, 0x00,
  0x14, 0x2c, 0x00, 0x00, 0xa0, 0x2b, 0x00, 0x00, 0x64, 0x2b, 0x00, 0x00,
  0x04, 0x2b, 0x00, 0x00, 0xa8, 0x2a, 0x00, 0x00, 0x44, 0x2a, 0x00, 0x00,
  0xa4, 0x29, 0x00, 0x00, 0x0c, 0x29, 0x00, 0x00, 0x90, 0x25, 0x00, 0x00,
  0x2c, 0x22, 0x00, 0x00, 0xa8, 0x21, 0x00, 0x00, 0x24, 0x21, 0x00, 0x00,
  0x30, 0x1d, 0x00, 0x00, 0xbc, 0x19, 0x00, 0x00, 0x38, 0x19, 0x00, 0x00,
  0xb4, 0x18, 0x00, 0x00, 0x50, 0x16, 0x00, 0x00, 0x5c, 0x14, 0x00, 0x00,
  0xe4, 0x13, 0x00, 0x00, 0x2c, 0x13, 0x00, 0x00, 0x18, 0x12, 0x00, 0x00,
  0xbc, 0x10, 0x00, 0x00, 0x00, 0x0f, 0x00, 0x00, 0x48, 0x0d, 0x00, 0x00,
  0xa0, 0x0c, 0x00, 0x00, 0x04, 0x0c, 0x00, 0x00, 0x6c, 0x0b, 0x00, 0x00,
  0xcc, 0x0a, 0x00, 0x00, 0xa8, 0x09, 0x00, 0x00, 0x44, 0x08, 0x00, 0x00,
  0x78, 0x06, 0x00, 0x00, 0xb0, 0x04, 0x00, 0x00, 0x08, 0x04, 0x00, 0x00,
  0x6c, 0x03, 0x00, 0x00, 0xcc, 0x02, 0x00, 0x00, 0x3c, 0x02, 0x00, 0x00,
  0x88, 0x01, 0x00, 0x00, 0xe4, 0x00, 0x00, 0x00, 0x60, 0x00, 0x00, 0x00,
  0x04, 0x00, 0x00, 0x00, 0x52, 0xd4, 0xff, 0xff, 0x00, 0x00, 0x00, 0x01,
  0x14, 0x00, 0x00, 0x00, 0x1c, 0x00, 0x00, 0x00, 0x1c, 0x00, 0x00, 0x00,
  0x29, 0x00, 0x00, 0x00, 0x34, 0x00, 0x00, 0x00, 0x02, 0x00, 0x00, 0x00,
  0xff, 0xff, 0xff, 0xff, 0x04, 0x00, 0x00, 0x00, 0x38, 0xd4, 0xff, 0xff,
  0x1b, 0x00, 0x00, 0x00, 0x53, 0x74, 0x61, 0x74, 0x65, 0x66, 0x75, 0x6c,
  0x50, 0x61, 0x72, 0x74, 0x69, 0x74, 0x69, 0x6f, 0x6e, 0x65, 0x64, 0x43,
  0x61, 0x6c, 0x6c, 0x5f, 0x31, 0x3a, 0x30, 0x00, 0x02, 0x00, 0x00, 0x00,
  0x01, 0x00, 0x00, 0x00, 0x04, 0x00, 0x00, 0x00, 0xe2, 0xec, 0xff, 0xff,
  0x00, 0x00, 0x00, 0x01, 0x18, 0x00, 0x00, 0x00, 0x20, 0x00, 0x00, 0x00,
  0x40, 0x00, 0x00, 0x00, 0x28, 0x00, 0x00, 0x00, 0x00, 0x00, 0x00, 0x09,
  0x58, 0x00, 0x00, 0x00, 0x02, 0x00, 0x00, 0x00, 0xff, 0xff, 0xff, 0xff,
  0x04, 0x00, 0x00, 0x00, 0x4c, 0xd7, 0xff, 0xff, 0x08, 0x00, 0x00, 0x00,
  0x14, 0x00, 0x00, 0x00, 0x01, 0x00, 0x00, 0x00, 0x80, 0xff, 0xff, 0xff,
  0xff, 0xff, 0xff, 0xff, 0x00, 0x00, 0x00, 0x00, 0x01, 0x00, 0x00, 0x00,
  0x00, 0x00, 0x80, 0x3b, 0x1c, 0x00, 0x00, 0x00, 0x53, 0x74, 0x61, 0x74,
  0x65, 0x66, 0x75, 0x6c, 0x50, 0x61, 0x72, 0x74, 0x69, 0x74, 0x69, 0x6f,
  0x6e, 0x65, 0x64, 0x43, 0x61, 0x6c, 0x6c, 0x5f, 0x31, 0x3a, 0x30, 0x31,
  0x00, 0x00, 0x00, 0x00, 0x02, 0x00, 0x00, 0x00, 0x01, 0x00, 0x00, 0x00,
  0x04, 0x00, 0x00, 0x00, 0x62, 0xed, 0xff, 0xff, 0x00, 0x00, 0x00, 0x01,
  0x18, 0x00, 0x00, 0x00, 0x20, 0x00, 0x00, 0x00, 0x40, 0x00, 0x00, 0x00,
  0x27, 0x00, 0x00, 0x00, 0x00, 0x00, 0x00, 0x09, 0x78, 0x00, 0x00, 0x00,
  0x02, 0x00, 0x00, 0x00, 0xff, 0xff, 0xff, 0xff, 0x04, 0x00, 0x00, 0x00,
  0xcc, 0xd7, 0xff, 0xff, 0x08, 0x00, 0x00, 0x00, 0x14, 0x00, 0x00, 0x00,
  0x01, 0x00, 0x00, 0x00, 0x2e, 0x00, 0x00, 0x00, 0x00, 0x00, 0x00, 0x00,
  0x00, 0x00, 0x00, 0x00, 0x01, 0x00, 0x00, 0x00, 0x11, 0x62, 0x91, 0x3e,
  0x3c, 0x00, 0x00, 0x00, 0x68, 0x75, 0x72, 0x6c, 0x65, 0x79, 0x5f, 0x63,
  0x6e, 0x6e, 0x5f, 0x31, 0x2f, 0x64, 0x65, 0x6e, 0x73, 0x65, 0x5f, 0x31,
  0x5f, 0x32, 0x2f, 0x4d, 0x61, 0x74, 0x4d, 0x75, 0x6c, 0x3b, 0x68, 0x75,
  0x72, 0x6c, 0x65, 0x79, 0x5f, 0x63, 0x6e, 0x6e, 0x5f, 0x31, 0x2f, 0x64,
  0x65, 0x6e, 0x73, 0x65, 0x5f, 0x31, 0x5f, 0x32, 0x2f, 0x42, 0x69, 0x61,
  0x73, 0x41, 0x64, 0x64, 0x00, 0x00, 0x00, 0x00, 0x02, 0x00, 0x00, 0x00,
  0x01, 0x00, 0x00, 0x00, 0x04, 0x00, 0x00, 0x00, 0x02, 0xee, 0xff, 0xff,
  0x00, 0x00, 0x00, 0x01, 0x18, 0x00, 0x00, 0x00, 0x20, 0x00, 0x00, 0x00,
  0x3c, 0x00, 0x00, 0x00, 0x26, 0x00, 0x00, 0x00, 0x00, 0x00, 0x00, 0x09,
  0x88, 0x00, 0x00, 0x00, 0x02, 0x00, 0x00, 0x00, 0xff, 0xff, 0xff, 0xff,
  0x40, 0x00, 0x00, 0x00, 0x6c, 0xd8, 0xff, 0xff, 0x08, 0x00, 0x00, 0x00,
  0x10, 0x00, 0x00, 0x00, 0x01, 0x00, 0x00, 0x00, 0x80, 0xff, 0xff, 0xff,
  0xff, 0xff, 0xff, 0xff, 0x01, 0x00, 0x00, 0x00, 0x8c, 0xf9, 0x48, 0x3d,
  0x52, 0x00, 0x00, 0x00, 0x68, 0x75, 0x72, 0x6c, 0x65, 0x79, 0x5f, 0x63,
  0x6e, 0x6e, 0x5f, 0x31, 0x2f, 0x64, 0x65, 0x6e, 0x73, 0x65, 0x5f, 0x31,
  0x2f, 0x4d, 0x61, 0x74, 0x4d, 0x75, 0x6c, 0x3b, 0x68, 0x75, 0x72, 0x6c,
  0x65, 0x79, 0x5f, 0x63, 0x6e, 0x6e, 0x5f, 0x31, 0x2f, 0x64, 0x65, 0x6e,
  0x73, 0x65, 0x5f, 0x31, 0x2f, 0x52, 0x65, 0x6c, 0x75, 0x3b, 0x68, 0x75,
  0x72, 0x6c, 0x65, 0x79, 0x5f, 0x63, 0x6e, 0x6e, 0x5f, 0x31, 0x2f, 0x64,
  0x65, 0x6e, 0x73, 0x65, 0x5f, 0x31, 0x2f, 0x42, 0x69, 0x61, 0x73, 0x41,
  0x64, 0x64, 0x00, 0x00, 0x02, 0x00, 0x00, 0x00, 0x01, 0x00, 0x00, 0x00,
  0x40, 0x00, 0x00, 0x00, 0xb2, 0xee, 0xff, 0xff, 0x00, 0x00, 0x00, 0x01,
  0x18, 0x00, 0x00, 0x00, 0x20, 0x00, 0x00, 0x00, 0x3c, 0x00, 0x00, 0x00,
  0x25, 0x00, 0x00, 0x00, 0x00, 0x00, 0x00, 0x09, 0x64, 0x00, 0x00, 0x00,
  0x02, 0x00, 0x00, 0x00, 0xff, 0xff, 0xff, 0xff, 0x40, 0x00, 0x00, 0x00,
  0x1c, 0xd9, 0xff, 0xff, 0x08, 0x00, 0x00, 0x00, 0x10, 0x00, 0x00, 0x00,
  0x01, 0x00, 0x00, 0x00, 0xe0, 0xff, 0xff, 0xff, 0xff, 0xff, 0xff, 0xff,
  0x01, 0x00, 0x00, 0x00, 0x6b, 0x17, 0xb3, 0x3c, 0x2c, 0x00, 0x00, 0x00,
  0x68, 0x75, 0x72, 0x6c, 0x65, 0x79, 0x5f, 0x63, 0x6e, 0x6e, 0x5f, 0x31,
  0x2f, 0x67, 0x6c, 0x6f, 0x62, 0x61, 0x6c, 0x5f, 0x61, 0x76, 0x65, 0x72,
  0x61, 0x67, 0x65, 0x5f, 0x70, 0x6f, 0x6f, 0x6c, 0x69, 0x6e, 0x67, 0x31,
  0x64, 0x5f, 0x31, 0x2f, 0x4d, 0x65, 0x61, 0x6e, 0x00, 0x00, 0x00, 0x00,
  0x02, 0x00, 0x00, 0x00, 0x01, 0x00, 0x00, 0x00, 0x40, 0x00, 0x00, 0x00,
  0x3e, 0xef, 0xff, 0xff, 0x00, 0x00, 0x00, 0x01, 0x18, 0x00, 0x00, 0x00,
  0x24, 0x00, 0x00, 0x00, 0x44, 0x00, 0x00, 0x00, 0x24, 0x00, 0x00, 0x00,
  0x00, 0x00, 0x00, 0x09, 0x70, 0x00, 0x00, 0x00, 0x03, 0x00, 0x00, 0x00,
  0xff, 0xff, 0xff, 0xff, 0x19, 0x00, 0x00, 0x00, 0x40, 0x00, 0x00, 0x00,
  0xac, 0xd9, 0xff, 0xff, 0x08, 0x00, 0x00, 0x00, 0x14, 0x00, 0x00, 0x00,
  0x01, 0x00, 0x00, 0x00, 0x8b, 0xff, 0xff, 0xff, 0xff, 0xff, 0xff, 0xff,
  0x00, 0x00, 0x00, 0x00, 0x01, 0x00, 0x00, 0x00, 0x21, 0xd2, 0x3d, 0x3e,
  0x31, 0x00, 0x00, 0x00, 0x68, 0x75, 0x72, 0x6c, 0x65, 0x79, 0x5f, 0x63,
  0x6e, 0x6e, 0x5f, 0x31, 0x2f, 0x6d, 0x61, 0x78, 0x5f, 0x70, 0x6f, 0x6f,
  0x6c, 0x69, 0x6e, 0x67, 0x31, 0x64, 0x5f, 0x31, 0x5f, 0x32, 0x2f, 0x4d,
  0x61, 0x78, 0x50, 0x6f, 0x6f, 0x6c, 0x31, 0x64, 0x2f, 0x53, 0x71, 0x75,
  0x65, 0x65, 0x7a, 0x65, 0x31, 0x00, 0x00, 0x00, 0x03, 0x00, 0x00, 0x00,
  0x01, 0x00, 0x00, 0x00, 0x19, 0x00, 0x00, 0x00, 0x40, 0x00, 0x00, 0x00,
  0xda, 0xef, 0xff, 0xff, 0x00, 0x00, 0x00, 0x01, 0x18, 0x00, 0x00, 0x00,
  0x28, 0x00, 0x00, 0x00, 0x44, 0x00, 0x00, 0x00, 0x23, 0x00, 0x00, 0x00,
  0x00, 0x00, 0x00, 0x09, 0x68, 0x00, 0x00, 0x00, 0x04, 0x00, 0x00, 0x00,
  0xff, 0xff, 0xff, 0xff, 0x01, 0x00, 0x00, 0x00, 0x19, 0x00, 0x00, 0x00,
  0x40, 0x00, 0x00, 0x00, 0x4c, 0xda, 0xff, 0xff, 0x08, 0x00, 0x00, 0x00,
  0x10, 0x00, 0x00, 0x00, 0x01, 0x00, 0x00, 0x00, 0x8b, 0xff, 0xff, 0xff,
  0xff, 0xff, 0xff, 0xff, 0x01, 0x00, 0x00, 0x00, 0x21, 0xd2, 0x3d, 0x3e,
  0x28, 0x00, 0x00, 0x00, 0x68, 0x75, 0x72, 0x6c, 0x65, 0x79, 0x5f, 0x63,
  0x6e, 0x6e, 0x5f, 0x31, 0x2f, 0x6d, 0x61, 0x78, 0x5f, 0x70, 0x6f, 0x6f,
  0x6c, 0x69, 0x6e, 0x67, 0x31, 0x64, 0x5f, 0x31, 0x5f, 0x32, 0x2f, 0x4d,
  0x61, 0x78, 0x50, 0x6f, 0x6f, 0x6c, 0x31, 0x64, 0x00, 0x00, 0x00, 0x00,
  0x04, 0x00, 0x00, 0x00, 0x01, 0x00, 0x00, 0x00, 0x01, 0x00, 0x00, 0x00,
  0x19, 0x00, 0x00, 0x00, 0x40, 0x00, 0x00, 0x00, 0x72, 0xf0, 0xff, 0xff,
  0x00, 0x00, 0x00, 0x01, 0x18, 0x00, 0x00, 0x00, 0x28, 0x00, 0x00, 0x00,
  0x48, 0x00, 0x00, 0x00, 0x22, 0x00, 0x00, 0x00, 0x00, 0x00, 0x00, 0x09,
  0x74, 0x00, 0x00, 0x00, 0x04, 0x00, 0x00, 0x00, 0xff, 0xff, 0xff, 0xff,
  0x01, 0x00, 0x00, 0x00, 0x32, 0x00, 0x00, 0x00, 0x40, 0x00, 0x00, 0x00,
  0xe4, 0xda, 0xff, 0xff, 0x08, 0x00, 0x00, 0x00, 0x14, 0x00, 0x00, 0x00,
  0x01, 0x00, 0x00, 0x00, 0x8b, 0xff, 0xff, 0xff, 0xff, 0xff, 0xff, 0xff,
  0x00, 0x00, 0x00, 0x00, 0x01, 0x00, 0x00, 0x00, 0x21, 0xd2, 0x3d, 0x3e,
  0x33, 0x00, 0x00, 0x00, 0x68, 0x75, 0x72, 0x6c, 0x65, 0x79, 0x5f, 0x63,
  0x6e, 0x6e, 0x5f, 0x31, 0x2f, 0x6d, 0x61, 0x78, 0x5f, 0x70, 0x6f, 0x6f,
  0x6c, 0x69, 0x6e, 0x67, 0x31, 0x64, 0x5f, 0x31, 0x5f, 0x32, 0x2f, 0x4d,
  0x61, 0x78, 0x50, 0x6f, 0x6f, 0x6c, 0x31, 0x64, 0x2f, 0x45, 0x78, 0x70,
  0x61, 0x6e, 0x64, 0x44, 0x69, 0x6d, 0x73, 0x00, 0x04, 0x00, 0x00, 0x00,
  0x01, 0x00, 0x00, 0x00, 0x01, 0x00, 0x00, 0x00, 0x32, 0x00, 0x00, 0x00,
  0x40, 0x00, 0x00, 0x00, 0x16, 0xf1, 0xff, 0xff, 0x00, 0x00, 0x00, 0x01,
  0x18, 0x00, 0x00, 0x00, 0x24, 0x00, 0x00, 0x00, 0x44, 0x00, 0x00, 0x00,
  0x21, 0x00, 0x00, 0x00, 0x00, 0x00, 0x00, 0x09, 0x98, 0x01, 0x00, 0x00,
  0x03, 0x00, 0x00, 0x00, 0xff, 0xff, 0xff, 0xff, 0x32, 0x00, 0x00, 0x00,
  0x40, 0x00, 0x00, 0x00, 0x84, 0xdb, 0xff, 0xff, 0x08, 0x00, 0x00, 0x00,
  0x14, 0x00, 0x00, 0x00, 0x01, 0x00, 0x00, 0x00, 0x8b, 0xff, 0xff, 0xff,
  0xff, 0xff, 0xff, 0xff, 0x00, 0x00, 0x00, 0x00, 0x01, 0x00, 0x00, 0x00,
  0x21, 0xd2, 0x3d, 0x3e, 0x59, 0x01, 0x00, 0x00, 0x68, 0x75, 0x72, 0x6c,
  0x65, 0x79, 0x5f, 0x63, 0x6e, 0x6e, 0x5f, 0x31, 0x2f, 0x62, 0x61, 0x74,
  0x63, 0x68, 0x5f, 0x6e, 0x6f, 0x72, 0x6d, 0x61, 0x6c, 0x69, 0x7a, 0x61,
  0x74, 0x69, 0x6f, 0x6e, 0x5f, 0x31, 0x5f, 0x32, 0x2f, 0x62, 0x61, 0x74,
  0x63, 0x68, 0x6e, 0x6f, 0x72, 0x6d, 0x2f, 0x61, 0x64, 0x64, 0x5f, 0x31,
  0x3b, 0x68, 0x75, 0x72, 0x6c, 0x65, 0x79, 0x5f, 0x63, 0x6e, 0x6e, 0x5f,
  0x31, 0x2f, 0x63, 0x6f, 0x6e, 0x76, 0x31, 0x64, 0x5f, 0x31, 0x5f, 0x32,
  0x2f, 0x63, 0x6f, 0x6e, 0x76, 0x6f, 0x6c, 0x75, 0x74, 0x69, 0x6f, 0x6e,
  0x2f, 0x53, 0x71, 0x75, 0x65, 0x65, 0x7a, 0x65, 0x3b, 0x68, 0x75, 0x72,
  0x6c, 0x65, 0x79, 0x5f, 0x63, 0x6e, 0x6e, 0x5f, 0x31, 0x2f, 0x62, 0x61,
  0x74, 0x63, 0x68, 0x5f, 0x6e, 0x6f, 0x72, 0x6d, 0x61, 0x6c, 0x69, 0x7a,
